.	-2.22545
<s>	0
</s>	0
<unk>	0
▁a	-3.84508
▁tom	-3.86002
▁i	-3.9832
'	-3.99927
?	-4.09397
▁the	-4.18976
▁to	-4.23877
s	-4.31736
▁you	-4.38063
▁de	-4.39263
▁no	-4.47192
▁que	-4.48549
▁la	-4.63313
t	-4.73673
▁¿	-4.78799
▁el	-4.8031
▁me	-4.84891
▁is	-4.85002
,	-4.88534
▁he	-4.98308
▁en	-4.99281
▁es	-5.04635
▁un	-5.19099
▁it	-5.29126
▁in	-5.34661
▁	-5.37173
▁mary	-5.37956
▁of	-5.42987
▁that	-5.43511
▁se	-5.48693
▁was	-5.52537
n	-5.53844
▁él	-5.58978
▁do	-5.6174
▁lo	-5.63196
▁have	-5.67722
▁una	-5.68028
▁this	-5.68264
▁my	-5.70026
▁por	-5.7268
▁for	-5.80079
▁she	-5.82392
▁we	-5.82729
▁what	-5.86011
▁su	-5.88865
▁mi	-5.92941
▁con	-5.9427
▁los	-5.94642
▁don	-5.95078
▁can	-5.9545
▁está	-5.97361
▁are	-5.99224
▁be	-6.00714
▁le	-6.01002
▁ella	-6.02332
▁his	-6.03248
m	-6.05436
▁your	-6.08065
▁did	-6.08112
▁on	-6.12195
▁with	-6.15429
▁para	-6.16257
▁want	-6.16319
▁al	-6.18386
▁has	-6.19076
▁and	-6.23685
▁not	-6.24949
▁y	-6.25506
▁te	-6.26183
▁like	-6.26858
▁know	-6.30247
▁más	-6.30471
▁las	-6.30686
▁at	-6.37996
▁him	-6.38931
▁there	-6.47157
▁go	-6.47714
▁they	-6.49233
re	-6.4939
▁tu	-6.51031
d	-6.51739
▁yo	-6.53771
▁her	-6.53866
ll	-6.5491
▁qué	-6.56763
ó	-6.59086
▁will	-6.63676
▁time	-6.6659
▁estoy	-6.66988
▁how	-6.68844
▁muy	-6.68851
ed	-6.70412
▁very	-6.71656
▁had	-6.71718
▁esta	-6.71873
▁eso	-6.73268
▁este	-6.73425
▁tiene	-6.73573
ve	-6.74864
▁all	-6.77114
▁del	-6.78472
▁here	-6.79056
▁estaba	-6.793
▁up	-6.79552
▁about	-6.7972
a	-6.80953
▁quiero	-6.82209
▁think	-6.82951
qué	-6.83107
▁si	-6.83276
▁tengo	-6.84567
!	-6.84847
▁fue	-6.85094
▁casa	-6.86499
▁aquí	-6.87433
▁get	-6.89532
▁out	-6.90222
▁when	-6.90357
▁as	-6.91991
▁hacer	-6.92038
▁from	-6.93259
ing	-6.9349
te	-6.93897
▁como	-6.94293
▁if	-6.96283
▁were	-6.99074
▁one	-6.99462
▁who	-6.99595
▁son	-6.9972
▁come	-7.00943
▁ha	-7.01984
▁could	-7.05074
▁an	-7.05104
▁todo	-7.05267
▁algo	-7.0612
▁esto	-7.06975
▁doesn	-7.07683
▁going	-7.0809
▁would	-7.08154
▁by	-7.09055
▁tiempo	-7.09111
▁gusta	-7.11321
▁why	-7.12398
▁see	-7.12537
o	-7.13453
▁good	-7.13518
▁favor	-7.14229
▁tan	-7.17336
▁please	-7.19095
▁ir	-7.19246
▁should	-7.19509
▁so	-7.20292
▁nada	-7.2066
▁just	-7.21283
▁todos	-7.21563
▁puedo	-7.21645
▁been	-7.21871
▁need	-7.21936
▁era	-7.22005
▁hay	-7.221
▁where	-7.22328
▁let	-7.23814
▁cuando	-7.24058
▁boston	-7.24722
▁tell	-7.24974
▁vez	-7.25243
▁bien	-7.27122
▁mucho	-7.27738
▁help	-7.29725
▁more	-7.29975
mos	-7.30886
▁puede	-7.31575
▁but	-7.33151
▁now	-7.33828
▁than	-7.34324
▁never	-7.35592
▁ellos	-7.35991
por	-7.36395
▁ser	-7.36701
▁us	-7.36953
es	-7.37287
▁car	-7.37371
▁sé	-7.38446
▁some	-7.38762
▁solo	-7.39057
me	-7.39877
▁something	-7.40242
▁got	-7.40565
▁too	-7.41064
▁take	-7.41377
▁nunca	-7.41552
▁mañana	-7.42167
▁day	-7.42751
▁am	-7.44043
▁much	-7.4443
▁last	-7.44526
▁trabajo	-7.44849
▁¡	-7.45759
▁creo	-7.46955
▁money	-7.4751
▁home	-7.49479
▁dijo	-7.50346
▁ahora	-7.50444
▁work	-7.50478
▁dinero	-7.50917
▁people	-7.5111
▁sus	-7.5187
▁hablar	-7.52364
▁dos	-7.53516
▁ya	-7.53591
▁había	-7.54854
▁pero	-7.56174
é	-7.56877
▁tomás	-7.57062
▁back	-7.57178
▁día	-7.60719
▁soy	-7.62185
▁our	-7.62654
▁hace	-7.63035
▁house	-7.63198
▁really	-7.63531
▁siempre	-7.63967
▁nos	-7.63982
▁went	-7.64092
▁book	-7.64163
▁said	-7.64622
▁many	-7.64653
▁ese	-7.64697
▁están	-7.64716
▁libro	-7.65337
▁told	-7.65622
▁must	-7.66068
▁o	-7.66585
▁give	-7.67208
▁any	-7.67828
▁poco	-7.68563
▁anything	-7.69372
▁lot	-7.70101
▁haber	-7.70149
▁hoy	-7.7026
▁thought	-7.70752
▁man	-7.70895
▁say	-7.7116
▁today	-7.71272
▁does	-7.7138
▁school	-7.71717
▁quiere	-7.71722
▁new	-7.71933
▁eat	-7.71964
▁make	-7.71985
▁voy	-7.72193
▁room	-7.72731
▁va	-7.7306
▁only	-7.73118
▁french	-7.73509
▁nadie	-7.73512
▁mejor	-7.73824
▁ver	-7.73922
▁two	-7.74237
▁esa	-7.7517
▁made	-7.75478
▁always	-7.75953
ta	-7.75972
▁años	-7.76154
ly	-7.76737
▁tú	-7.76756
▁speak	-7.77312
▁estar	-7.77451
▁right	-7.77558
no	-7.7769
▁long	-7.78077
▁father	-7.78078
e	-7.78454
▁idea	-7.78566
▁sabe	-7.78609
se	-7.78634
▁tarde	-7.78713
▁john	-7.79094
▁demasiado	-7.79349
▁francés	-7.79477
▁maría	-7.79735
▁padre	-7.80124
▁quería	-7.80283
▁"	-7.81619
▁three	-7.82865
▁tenía	-7.82955
▁love	-7.8347
▁may	-7.83714
▁every	-7.83951
▁parece	-7.84231
▁hizo	-7.84335
▁old	-7.84733
▁antes	-7.85232
▁tienes	-7.85998
▁tres	-7.87042
▁estás	-7.87053
▁mis	-7.87143
▁well	-7.87615
▁night	-7.88315
▁debería	-7.8888
▁still	-7.89439
▁off	-7.89607
▁look	-7.89632
▁wanted	-7.89687
▁tomorrow	-7.91874
▁noche	-7.91949
-	-7.92019
▁talk	-7.9258
▁before	-7.92602
▁won	-7.92747
▁asked	-7.92989
dónde	-7.93293
▁hora	-7.93673
▁left	-7.95418
▁put	-7.95591
▁sin	-7.95737
▁over	-7.95832
r	-7.95981
▁way	-7.96289
▁usted	-7.966
▁eres	-7.96865
▁dog	-7.97236
▁sobre	-7.97544
▁or	-7.97816
▁leave	-7.98278
▁little	-7.9878
▁ti	-7.99484
▁nothing	-7.99874
▁uno	-8.00242
▁verdad	-8.00509
▁job	-8.00521
▁saw	-8.00824
▁mí	-8.00869
y	-8.00902
▁again	-8.00967
▁ayer	-8.00986
▁yesterday	-8.01456
▁perro	-8.01612
▁comer	-8.0163
▁live	-8.01909
▁hombre	-8.01936
▁after	-8.01936
cómo	-8.02374
▁estado	-8.0239
▁into	-8.03164
▁better	-8.03716
▁puedes	-8.03795
▁down	-8.03883
▁years	-8.03977
▁debe	-8.04662
▁vida	-8.05172
▁mother	-8.06029
▁english	-8.06194
▁everything	-8.06195
quién	-8.0672
▁alguna	-8.06771
▁find	-8.06944
▁nuevo	-8.07112
▁necesito	-8.07209
▁buy	-8.07215
▁stay	-8.07829
▁inglés	-8.08055
le	-8.08516
▁read	-8.08868
▁came	-8.0941
▁happy	-8.096
▁días	-8.10142
do	-8.10596
▁play	-8.11056
▁first	-8.12054
▁decir	-8.13071
▁coche	-8.13301
ok	-8.13526
▁next	-8.13844
▁gente	-8.14207
▁todavía	-8.14253
▁mismo	-8.14771
▁hecho	-8.1496
▁life	-8.15298
▁tenemos	-8.15323
▁understand	-8.1541
▁nosotros	-8.15484
▁other	-8.15511
▁believe	-8.15847
▁problema	-8.16148
▁children	-8.16778
▁así	-8.16927
▁ask	-8.17385
▁madre	-8.18311
▁hard	-8.19017
▁pensé	-8.19621
cuál	-8.19692
▁gustaría	-8.19808
▁them	-8.19844
▁alguien	-8.20435
▁semana	-8.20838
▁these	-8.21133
▁plan	-8.2204
▁stop	-8.22055
▁keep	-8.22428
▁call	-8.22953
▁morning	-8.23312
▁bought	-8.23314
mente	-8.23474
▁friends	-8.23527
▁wants	-8.23854
▁otra	-8.24846
▁problem	-8.24886
▁sabía	-8.25018
▁door	-8.25163
on	-8.25193
▁name	-8.25684
▁feel	-8.25983
▁used	-8.26128
▁habitación	-8.26337
▁their	-8.26455
▁buen	-8.26522
▁puerta	-8.26532
▁pasado	-8.26555
▁doing	-8.27062
▁quieres	-8.27197
▁ever	-8.27538
▁deberías	-8.27811
▁estamos	-8.27888
▁escuela	-8.27988
▁away	-8.28257
▁después	-8.29034
lo	-8.29354
gún	-8.29456
▁friend	-8.2982
cuánto	-8.30243
▁dónde	-8.30364
▁gave	-8.30956
▁podría	-8.31218
▁casi	-8.31375
▁cosas	-8.31521
▁mundo	-8.31591
▁quién	-8.31778
▁doctor	-8.31943
▁soon	-8.32093
▁1	-8.32392
▁late	-8.32676
▁amigos	-8.3294
▁sure	-8.33432
▁happened	-8.33851
▁remember	-8.35439
▁feliz	-8.35556
▁niños	-8.36094
▁fuera	-8.36367
▁bus	-8.36591
▁saber	-8.36945
▁difícil	-8.37068
▁veces	-8.37135
▁lost	-8.37211
▁ayuda	-8.37577
▁año	-8.37582
▁hacerlo	-8.377
▁tus	-8.37957
▁allí	-8.38097
▁year	-8.38174
cuándo	-8.38257
▁already	-8.38281
▁sea	-8.39097
▁cómo	-8.39393
▁pronto	-8.39442
▁auto	-8.39723
▁enough	-8.40379
▁alone	-8.40861
▁otro	-8.40987
▁boy	-8.4099
á	-8.41157
▁week	-8.41233
▁turn	-8.41267
▁show	-8.41409
▁niño	-8.41466
▁water	-8.41466
▁teacher	-8.41722
▁married	-8.41803
▁ni	-8.41875
▁heard	-8.41967
▁seguro	-8.42214
▁best	-8.42652
."	-8.42881
▁even	-8.42981
▁without	-8.43012
▁menos	-8.43308
▁bad	-8.43454
▁comprar	-8.43524
▁wrong	-8.43733
▁buena	-8.43804
▁dio	-8.43956
▁agua	-8.43969
cause	-8.44462
▁desde	-8.44485
▁busy	-8.44503
▁mal	-8.44869
▁beautiful	-8.44958
▁muchos	-8.44962
ble	-8.45094
▁amigo	-8.45152
▁bed	-8.45231
▁try	-8.45359
que	-8.45591
▁realmente	-8.45749
▁often	-8.45961
▁cold	-8.46206
▁hear	-8.46652
▁things	-8.46953
▁found	-8.47326
▁looking	-8.47402
▁visto	-8.47709
▁comida	-8.47711
▁party	-8.48231
▁wait	-8.48759
▁done	-8.49176
▁conmigo	-8.49241
▁thing	-8.49243
▁same	-8.49243
▁habla	-8.49246
▁ciudad	-8.49247
▁vi	-8.4925
▁nuestro	-8.49502
▁ahí	-8.49759
0	-8.50093
▁podía	-8.50798
▁vino	-8.50854
▁persona	-8.51197
puedo	-8.51366
de	-8.51583
▁food	-8.5164
▁seen	-8.51719
▁sólo	-8.51851
▁brother	-8.52154
▁ten	-8.52197
cada	-8.52209
▁nombre	-8.5243
▁train	-8.52874
▁use	-8.53158
▁looks	-8.53206
▁person	-8.53311
▁everyone	-8.53449
▁big	-8.53713
▁todas	-8.53981
▁knew	-8.53985
▁gran	-8.53992
▁personas	-8.54794
▁fiesta	-8.54901
▁vas	-8.54971
▁hermano	-8.55149
▁café	-8.55618
▁answer	-8.55767
en	-8.55786
▁tener	-8.55999
▁hope	-8.56116
▁hotel	-8.56656
▁tren	-8.56657
▁open	-8.56714
▁tired	-8.56731
▁knows	-8.56996
▁coffee	-8.56999
▁dice	-8.57002
▁toda	-8.5746
▁being	-8.57679
▁wish	-8.58054
▁contigo	-8.584
▁true	-8.58707
▁australia	-8.58897
▁drink	-8.59039
▁haciendo	-8.59252
▁while	-8.59535
▁letter	-8.59682
▁carta	-8.5981
▁watch	-8.59824
▁learn	-8.59892
▁lugar	-8.60107
▁likes	-8.60242
▁suficiente	-8.60574
tuvo	-8.60643
▁around	-8.60682
▁someone	-8.60975
▁les	-8.61143
▁tanto	-8.61464
▁japan	-8.6155
▁which	-8.62136
▁japón	-8.62429
▁hospital	-8.62651
▁once	-8.62765
▁profesor	-8.62814
▁girl	-8.62915
▁clase	-8.6351
▁yet	-8.63615
▁cama	-8.63623
▁acerca	-8.64659
▁pay	-8.64694
▁salir	-8.6481
▁leer	-8.64816
▁policía	-8.65024
▁world	-8.65411
is	-8.65921
▁mind	-8.66636
▁books	-8.66684
▁bueno	-8.66688
▁sleep	-8.6675
▁nuestra	-8.66876
▁few	-8.66934
▁libros	-8.67412
▁cuenta	-8.6751
▁died	-8.67706
▁momento	-8.67895
▁muchas	-8.68014
▁grande	-8.6815
most	-8.68585
▁study	-8.68699
▁own	-8.68709
▁kind	-8.68713
▁place	-8.69192
▁days	-8.69567
▁write	-8.6971
▁diez	-8.6974
▁most	-8.69925
▁care	-8.70181
▁those	-8.70372
ther	-8.70893
▁sister	-8.71007
▁truth	-8.7101
▁young	-8.71077
ndo	-8.71644
▁cerca	-8.71917
▁each	-8.71975
▁pasó	-8.72017
▁siento	-8.72302
▁parents	-8.72321
▁walk	-8.72422
▁talking	-8.72511
▁another	-8.72624
▁rápido	-8.72627
▁hermana	-8.72636
ando	-8.73244
▁lunch	-8.73601
▁seems	-8.73975
estás	-8.74052
▁happen	-8.74079
▁looked	-8.74211
▁teléfono	-8.74262
▁hijo	-8.74296
▁espero	-8.74309
▁lunes	-8.74594
▁anyone	-8.74597
▁getting	-8.74631
▁family	-8.74926
▁tv	-8.74926
▁padres	-8.75249
▁problemas	-8.75275
▁historia	-8.75995
▁vive	-8.76094
os	-8.7626
▁afraid	-8.76266
▁tried	-8.76267
▁pudo	-8.7627
▁monday	-8.76348
▁fui	-8.76531
▁dejó	-8.76627
▁both	-8.7688
▁great	-8.76947
▁early	-8.76948
▁ago	-8.77148
▁sido	-8.77155
▁anoche	-8.77304
▁hate	-8.77382
▁familia	-8.77427
▁aún	-8.78035
until	-8.78059
▁rain	-8.78166
▁vamos	-8.78178
▁mujer	-8.78245
▁vivir	-8.785
▁mine	-8.78871
▁acuerdo	-8.79005
tienes	-8.79096
▁trabajar	-8.79179
▁duran	-8.79246
▁tienen	-8.7929
▁difficult	-8.79312
▁también	-8.79354
▁together	-8.79704
▁horas	-8.79945
▁puso	-8.80056
▁nueva	-8.80135
▁cosa	-8.80161
▁jugar	-8.80387
▁gustan	-8.80393
▁cat	-8.80492
▁venir	-8.80761
▁joven	-8.80946
▁mayor	-8.81394
▁child	-8.81459
▁else	-8.81619
l	-8.82032
▁dinner	-8.8217
▁wife	-8.82175
▁murió	-8.82529
▁estaban	-8.82988
▁angry	-8.83249
▁coming	-8.8327
▁country	-8.83611
▁donde	-8.83623
quieres	-8.84032
▁aprender	-8.84498
▁since	-8.8467
▁entre	-8.84683
▁cinco	-8.84707
▁favorite	-8.85074
▁nadar	-8.85107
▁dejar	-8.85351
▁dije	-8.85415
▁himself	-8.85814
▁yourself	-8.85814
▁han	-8.85888
▁parte	-8.86087
▁tomar	-8.86162
▁hurt	-8.86411
▁hice	-8.86559
▁hours	-8.87014
▁encontrar	-8.87037
▁mano	-8.87042
▁pregunta	-8.87141
▁accidente	-8.87192
▁nobody	-8.87309
puedes	-8.87316
▁haven	-8.87687
▁mesa	-8.87784
▁playing	-8.87891
▁five	-8.88104
▁question	-8.88173
▁ocupado	-8.883
▁meeting	-8.8878
▁wouldn	-8.88897
▁pasar	-8.88944
▁matter	-8.89074
▁table	-8.89233
▁hand	-8.89369
▁gato	-8.8946
▁menudo	-8.896
▁phone	-8.8985
?"	-8.89946
▁everybody	-8.89982
▁bastante	-8.89982
▁temprano	-8.89982
▁meet	-8.90296
▁might	-8.90369
▁piano	-8.90369
▁ayudar	-8.9043
▁viene	-8.90636
▁mucha	-8.90745
▁televisión	-8.90758
▁llegar	-8.90777
▁reading	-8.90974
▁such	-8.91167
▁gracias	-8.91187
▁estudiar	-8.91512
▁sorry	-8.91543
▁accident	-8.91714
▁necesita	-8.91903
▁easy	-8.91934
▁volver	-8.92106
▁police	-8.92326
▁camino	-8.92331
▁sí	-8.92381
has	-8.92588
▁month	-8.92628
▁fácil	-8.9263
▁lleva	-8.92975
▁pidió	-8.93125
▁swim	-8.93126
▁under	-8.93126
▁dormir	-8.93533
er	-8.93729
▁japanese	-8.9393
▁start	-8.93939
▁eating	-8.94249
▁visit	-8.94389
▁aren	-8.94632
▁última	-8.94634
▁says	-8.94689
▁d	-8.94899
▁nice	-8.95472
▁lives	-8.95557
▁solía	-8.9556
▁far	-8.95634
▁fire	-8.95821
▁algunos	-8.96096
▁waiting	-8.96112
▁trying	-8.96117
as	-8.96589
▁trouble	-8.97002
▁mientra	-8.97199
▁minutos	-8.97342
▁drive	-8.97553
▁park	-8.97775
▁dar	-8.97861
▁called	-8.97983
▁office	-8.97999
▁estación	-8.98104
▁finished	-8.98142
▁ve	-8.98286
▁dicho	-8.98455
▁decided	-8.98525
▁started	-8.9858
▁minutes	-8.98631
▁wonder	-8.98758
▁cansado	-8.98932
▁será	-8.99125
▁razón	-8.99299
▁students	-8.99358
▁sola	-8.99498
▁fuerte	-8.99692
▁estos	-8.99977
▁small	-9.00139
▁thank	-9.00365
la	-9.00473
▁miedo	-9.00584
▁lado	-9.00813
▁myself	-9.01013
▁story	-9.01013
▁podemos	-9.01112
▁important	-9.01346
having	-9.0144
▁ready	-9.0153
▁país	-9.01815
▁colegio	-9.0188
▁station	-9.01884
▁window	-9.01897
▁alto	-9.02012
verdad	-9.02272
▁preguntó	-9.02325
▁felt	-9.02326
▁tonight	-9.02339
ía	-9.02512
▁ran	-9.02779
▁error	-9.0316
▁tipo	-9.03236
▁met	-9.03578
▁radio	-9.03639
▁woman	-9.0364
▁frío	-9.0364
▁arrived	-9.03707
▁importante	-9.03726
▁shoes	-9.03763
▁importa	-9.03977
▁conozco	-9.04083
▁hablando	-9.04119
▁ventana	-9.04129
▁sick	-9.04533
▁usually	-9.04991
0.	-9.05307
emos	-9.05335
▁music	-9.05368
i	-9.05553
▁red	-9.05619
▁vio	-9.05686
▁city	-9.05881
▁pretty	-9.06337
▁zapatos	-9.06392
▁change	-9.06723
▁hijos	-9.06746
▁working	-9.06795
▁estuvo	-9.06907
▁haya	-9.06987
▁oficina	-9.07251
▁anymore	-9.07712
▁música	-9.07712
▁hot	-9.07748
▁da	-9.07949
▁ate	-9.08003
▁fun	-9.08008
▁goes	-9.08124
▁compró	-9.08174
▁fast	-9.08607
▁pienso	-9.0864
▁hubiera	-9.0864
▁china	-9.08643
▁deja	-9.08655
▁película	-9.08748
▁word	-9.08802
▁llegó	-9.09121
ar	-9.09216
▁ustedes	-9.09342
▁fin	-9.09569
▁homework	-9.09577
▁quisiera	-9.09596
▁gone	-9.09658
▁needs	-9.09911
▁estudiantes	-9.09959
▁cabeza	-9.10048
▁town	-9.10057
▁tal	-9.10159
▁punto	-9.1017
▁enjoy	-9.1053
▁rich	-9.10539
▁large	-9.10595
sabes	-9.10708
▁broke	-9.11086
▁mistake	-9.11227
▁bicicleta	-9.11477
▁spend	-9.11625
▁reloj	-9.11887
▁christmas	-9.11957
▁esperar	-9.12025
▁cualquier	-9.12323
▁único	-9.1244
▁tennis	-9.12441
▁reunión	-9.12468
▁contra	-9.12806
▁juntos	-9.12845
▁fueron	-9.12986
▁picture	-9.13097
▁ojos	-9.13306
▁near	-9.13409
▁eyes	-9.13426
▁di	-9.13561
▁game	-9.13596
▁times	-9.13669
▁baby	-9.13904
▁primera	-9.13999
▁media	-9.14075
▁plane	-9.14077
▁run	-9.14081
▁movie	-9.14091
▁seis	-9.14098
▁breakfast	-9.14397
▁esperando	-9.14409
▁language	-9.14589
▁high	-9.14878
▁six	-9.14898
▁forget	-9.14977
nos	-9.15104
00	-9.15122
▁edad	-9.15325
▁misma	-9.15395
▁quite	-9.15508
ba	-9.1553
▁ido	-9.15572
▁afternoon	-9.15889
▁esposa	-9.15895
▁dream	-9.16006
▁tenis	-9.16385
▁nin	-9.16674
▁stupid	-9.16895
▁finish	-9.17286
▁creer	-9.17369
▁song	-9.177
▁unidos	-9.18002
▁fumar	-9.18095
▁viejo	-9.18159
▁sueño	-9.18166
▁quien	-9.18435
hay	-9.18477
▁queda	-9.18604
▁class	-9.18724
▁río	-9.18943
▁hair	-9.18967
▁war	-9.1931
▁somos	-9.19418
▁buscando	-9.19464
▁conducir	-9.19468
▁against	-9.19498
▁canción	-9.19612
▁pasa	-9.19717
▁summer	-9.19987
▁estados	-9.19994
▁debo	-9.20076
▁caja	-9.2025
▁bring	-9.20506
▁interesting	-9.20519
▁listen	-9.20575
▁chico	-9.20793
▁haga	-9.20884
▁advice	-9.21032
▁caught	-9.21032
▁guerra	-9.21032
▁river	-9.21032
▁present	-9.21123
▁cake	-9.21326
▁bajo	-9.21503
▁compré	-9.21561
▁ganas	-9.21606
▁ra	-9.21817
▁pueda	-9.21865
▁verte	-9.2249
▁fish	-9.22539
▁escribir	-9.22543
▁lived	-9.22586
▁fell	-9.22651
▁close	-9.22829
ever	-9.22924
▁comes	-9.23067
▁salió	-9.23167
▁milk	-9.23174
▁face	-9.23324
▁verano	-9.23475
▁palabra	-9.23496
▁smoking	-9.23717
▁studying	-9.23871
▁number	-9.24035
▁perder	-9.24105
▁through	-9.24249
▁número	-9.24588
▁kill	-9.24642
▁began	-9.24796
▁parecía	-9.248
▁along	-9.24807
▁sol	-9.25389
▁longer	-9.25403
▁llave	-9.25711
▁avión	-9.25897
▁weather	-9.25898
▁veo	-9.26011
▁taxi	-9.26259
▁free	-9.26309
▁pueden	-9.26433
▁cuarto	-9.26455
▁cree	-9.26479
▁calle	-9.26733
▁oído	-9.26844
not	-9.26974
▁tienda	-9.27392
▁respuesta	-9.27402
▁lejos	-9.27574
▁dólares	-9.27578
▁leche	-9.27589
▁sabes	-9.27649
▁full	-9.27961
▁b	-9.28027
▁re	-9.28041
▁autobús	-9.28138
▁iba	-9.28388
▁bebé	-9.28526
▁interesante	-9.28545
▁chica	-9.28548
▁dolor	-9.28564
▁perdido	-9.28707
▁sería	-9.28724
▁pensar	-9.28992
▁manera	-9.29119
▁short	-9.29213
▁later	-9.29449
▁médico	-9.29696
▁chance	-9.29703
▁older	-9.29911
▁navidad	-9.30431
▁america	-9.30564
▁mean	-9.30671
í	-9.30688
▁usar	-9.30769
da	-9.30888
▁hour	-9.30891
▁kept	-9.31012
▁terminar	-9.31104
▁watching	-9.31208
▁snow	-9.31223
▁juego	-9.31473
▁makes	-9.31517
▁death	-9.31602
▁secret	-9.31604
▁cierto	-9.31641
▁box	-9.31987
▁bit	-9.32024
▁living	-9.32185
▁age	-9.3227
▁pelo	-9.32613
▁dark	-9.32765
▁quedó	-9.32802
▁sat	-9.32856
▁cut	-9.33333
▁thinking	-9.33342
▁ropa	-9.33372
▁capaz	-9.33437
▁killed	-9.33503
▁esté	-9.33575
▁mío	-9.33583
▁light	-9.33726
▁llevar	-9.33805
ado	-9.33857
▁street	-9.33867
▁vivo	-9.33868
▁clean	-9.3434
▁student	-9.3449
▁ven	-9.34547
be	-9.34666
▁sit	-9.34946
▁oír	-9.3495
c	-9.35059
▁cámara	-9.35077
▁enfermo	-9.35179
▁parque	-9.352
▁encontré	-9.35214
▁vos	-9.35215
▁sometimes	-9.35287
▁encanta	-9.35697
▁tree	-9.35718
ninguna	-9.35789
▁became	-9.35795
▁hands	-9.36009
está	-9.36082
▁loves	-9.36231
▁libre	-9.36324
▁camera	-9.36326
▁regalo	-9.3634
▁spoke	-9.36403
▁vaya	-9.36535
▁end	-9.36611
▁hija	-9.36942
▁daughter	-9.36955
▁hurry	-9.3702
▁perdió	-9.3702
▁bicycle	-9.3702
▁seem	-9.37192
▁die	-9.37289
▁pie	-9.37393
▁stand	-9.37479
▁forgot	-9.37641
▁york	-9.37649
▁part	-9.37683
▁surprised	-9.37717
▁preguntas	-9.37801
▁par	-9.37839
▁mak	-9.37979
▁trust	-9.38154
▁computer	-9.38221
▁tokyo	-9.38266
▁born	-9.38274
▁white	-9.38277
▁dollars	-9.38402
▁cara	-9.38425
▁questions	-9.38514
▁manos	-9.38643
▁hungry	-9.38896
▁pude	-9.38897
▁cuidado	-9.38901
▁stopped	-9.38902
▁quit	-9.3891
▁estas	-9.38987
▁listo	-9.39344
▁entender	-9.39466
▁company	-9.39528
▁muerte	-9.39529
▁luz	-9.39549
▁forma	-9.40473
▁sos	-9.40704
▁real	-9.40771
▁vacaciones	-9.40806
▁realidad	-9.40809
▁wine	-9.40906
▁miss	-9.41024
▁tocar	-9.41317
▁pequeño	-9.41452
▁calor	-9.41459
▁news	-9.41954
▁glad	-9.42058
▁careful	-9.42063
▁terrible	-9.42072
▁store	-9.42081
▁spent	-9.421
▁acá	-9.42101
▁duro	-9.42209
▁beber	-9.42228
▁primero	-9.42267
able	-9.42339
▁posible	-9.42727
▁hambre	-9.42754
▁birthday	-9.42754
taking	-9.42757
▁consejo	-9.42767
▁moment	-9.43235
▁drunk	-9.43411
▁hold	-9.4343
▁dead	-9.43438
▁secreto	-9.43519
▁necesitas	-9.43775
▁tokio	-9.44074
▁niña	-9.44103
▁hit	-9.44267
▁culpa	-9.44383
al	-9.4446
▁lie	-9.44597
▁odio	-9.44742
▁pregunto	-9.44745
▁ojal	-9.44762
▁vuelta	-9.44776
▁whe	-9.44861
▁espera	-9.44866
▁queremos	-9.45039
▁10	-9.4508
▁tea	-9.4516
▁falta	-9.45273
▁e	-9.45307
tom	-9.45409
▁banco	-9.45412
▁rest	-9.45429
▁volvió	-9.45455
▁saying	-9.45957
▁flores	-9.46109
▁siquiera	-9.46118
▁cuanto	-9.46135
▁extraño	-9.46141
▁largo	-9.46142
▁viaje	-9.46147
▁cocina	-9.46363
▁follow	-9.46647
▁beer	-9.4667
▁cumpleaños	-9.4677
▁hombres	-9.4677
▁clothes	-9.46773
▁déjame	-9.46796
▁haci	-9.46833
▁entiendo	-9.46844
clock	-9.46964
▁malo	-9.47069
▁cena	-9.4707
▁trabaja	-9.47256
▁cost	-9.47379
▁behind	-9.47453
▁cerveza	-9.47453
▁equipo	-9.47457
▁become	-9.47533
▁van	-9.47555
▁flowers	-9.47911
▁ruido	-9.4809
▁terminado	-9.48159
▁sing	-9.48204
▁té	-9.4821
▁rico	-9.48226
▁llama	-9.48454
▁hagas	-9.48462
▁entrar	-9.48521
▁crees	-9.48708
▁business	-9.48834
▁tío	-9.48842
▁empezó	-9.48861
▁recuerdo	-9.4892
▁suerte	-9.49537
▁japonés	-9.49538
▁novia	-9.49614
an	-9.50129
▁hiciste	-9.5024
▁cantar	-9.50521
▁dur	-9.50789
▁pagar	-9.50818
▁oportunidad	-9.50879
▁compañía	-9.5095
▁próximo	-9.5095
▁possible	-9.5095
▁perros	-9.5097
▁haré	-9.5099
▁justo	-9.51064
▁canadian	-9.51071
▁eaten	-9.5108
▁estudiante	-9.51089
▁prefer	-9.51198
▁helped	-9.5133
▁piensa	-9.51424
▁touch	-9.51468
▁speaking	-9.51497
▁cuatro	-9.51664
ween	-9.51664
▁expensive	-9.51666
▁jamás	-9.51674
▁head	-9.51679
▁building	-9.51805
▁foto	-9.51806
▁dogs	-9.51944
ste	-9.51959
▁stayed	-9.52169
▁others	-9.5238
▁black	-9.52383
▁wrote	-9.52392
▁catch	-9.52395
▁pensando	-9.52398
▁lengua	-9.52531
▁advise	-9.52541
▁changed	-9.52617
▁allá	-9.5274
▁final	-9.52986
▁uncle	-9.53108
▁nieve	-9.53114
▁wearing	-9.53189
▁works	-9.53243
▁paper	-9.53265
▁send	-9.5331
▁esperaba	-9.5345
▁dress	-9.5365
▁trip	-9.53743
▁árbol	-9.53773
▁girlfriend	-9.53844
▁asunto	-9.54003
▁tarea	-9.54005
▁sunday	-9.54007
▁aconsej	-9.54156
▁cook	-9.54362
▁decidió	-9.54575
▁gets	-9.54703
▁reason	-9.5474
▁key	-9.54762
▁team	-9.54837
▁palabras	-9.5486
▁bet	-9.549
▁blame	-9.552
▁vista	-9.55315
▁outside	-9.55328
▁speaks	-9.55467
▁four	-9.55491
▁cuánto	-9.55527
▁os	-9.5572
▁conoce	-9.55947
▁color	-9.55997
▁order	-9.56137
▁quieras	-9.56143
▁bank	-9.56232
aron	-9.56395
▁tall	-9.56396
▁pain	-9.56502
▁visitar	-9.56772
amos	-9.56786
▁única	-9.56812
▁travel	-9.56898
▁break	-9.56906
▁dame	-9.56913
podrías	-9.56915
▁otros	-9.57137
▁estará	-9.5738
▁anybody	-9.5757
▁mujeres	-9.57716
▁estaré	-9.57728
▁puesto	-9.57785
▁heart	-9.58137
▁strange	-9.58253
▁women	-9.58333
▁running	-9.58334
▁examen	-9.58343
▁lista	-9.58418
▁cuándo	-9.58419
▁pan	-9.58454
▁necesitamos	-9.58475
▁cup	-9.58563
▁canadiense	-9.58568
▁extranjero	-9.58569
▁eran	-9.58622
▁oí	-9.5887
▁golf	-9.59091
▁asleep	-9.59102
▁famous	-9.59104
▁ice	-9.59285
▁worked	-9.59293
▁vestido	-9.59319
▁point	-9.59363
▁whole	-9.59509
▁thinks	-9.59676
▁lose	-9.59839
▁dentro	-9.59877
▁edificio	-9.59877
▁herself	-9.59877
▁último	-9.59877
▁perdí	-9.59884
▁amor	-9.5997
▁biblioteca	-9.60659
▁acaba	-9.60668
▁fuego	-9.60711
▁glasses	-9.60718
▁salud	-9.6073
▁noise	-9.60885
▁equivocado	-9.6091
▁pequeña	-9.60922
▁escuchar	-9.60934
▁debemos	-9.60967
▁needed	-9.61176
▁apena	-9.61344
▁strong	-9.61401
▁different	-9.61404
▁proud	-9.61446
▁floor	-9.61446
▁sound	-9.61741
▁carne	-9.61751
▁baseball	-9.6224
▁decisión	-9.6224
▁dangerous	-9.62241
▁taza	-9.62241
▁quickly	-9.6225
▁raining	-9.62461
▁diccionario	-9.6249
▁restaurante	-9.62504
▁bag	-9.62531
ron	-9.62815
▁explain	-9.62919
▁llover	-9.63003
▁sombrero	-9.6304
▁library	-9.63042
▁paid	-9.63057
▁montón	-9.63076
▁caminar	-9.63089
▁least	-9.63104
▁quieren	-9.63356
▁popular	-9.63573
▁sale	-9.63661
▁aquel	-9.63802
▁crazy	-9.63846
▁dictionary	-9.63846
▁fútbol	-9.63846
▁éxito	-9.63846
▁poder	-9.63849
▁exactly	-9.63851
▁tenido	-9.63872
▁trabajando	-9.63873
▁air	-9.64394
▁telephone	-9.64504
▁worry	-9.64562
▁conseguir	-9.64649
▁jardín	-9.64659
▁lluvia	-9.64659
▁exactamente	-9.64671
▁offer	-9.64725
▁loved	-9.6476
▁gatos	-9.64947
▁mala	-9.65043
▁primer	-9.65116
▁win	-9.65191
▁alrededor	-9.65409
▁cayó	-9.65481
▁club	-9.65481
▁hide	-9.65503
▁restaurant	-9.65508
▁move	-9.65606
▁agree	-9.6566
▁empezar	-9.65687
▁muerto	-9.65828
▁cats	-9.66022
▁safe	-9.66262
▁encontró	-9.66313
▁interested	-9.66334
▁errores	-9.66427
▁men	-9.66476
▁waited	-9.66705
▁takes	-9.66744
▁words	-9.66943
▁return	-9.67018
▁poner	-9.67091
▁concert	-9.67139
▁front	-9.6714
▁sitio	-9.67141
▁frente	-9.67148
▁sentido	-9.67156
▁decirle	-9.67346
▁problems	-9.67445
▁blanco	-9.67501
▁haría	-9.67529
in	-9.67572
▁cenar	-9.6761
▁played	-9.6771
▁pass	-9.67812
▁treinta	-9.67979
▁baño	-9.67984
▁"¿	-9.67988
▁pensaba	-9.67989
▁leyendo	-9.67994
▁concierto	-9.68014
▁entonces	-9.68014
▁weight	-9.6808
▁favorito	-9.68352
▁tenga	-9.68388
▁sigue	-9.68502
▁mistakes	-9.68569
g	-9.68571
▁poor	-9.68767
▁health	-9.68792
▁certain	-9.68826
▁swimming	-9.68827
▁siete	-9.68827
▁probabl	-9.68828
▁guitarra	-9.68834
▁llorar	-9.68843
▁atención	-9.68855
▁thirty	-9.68887
▁severa	-9.68926
▁camisa	-9.69205
▁abogado	-9.69219
▁inteligente	-9.69231
eres	-9.69325
▁loco	-9.69442
▁mad	-9.69475
▁broken	-9.69526
▁cry	-9.69588
▁guitar	-9.69673
▁béisbol	-9.69681
▁umbrella	-9.69681
▁half	-9.69683
▁pasando	-9.6973
el	-9.698
▁clases	-9.69972
▁mira	-9.69987
▁evening	-9.70021
cuánta	-9.70053
ited	-9.70085
▁pens	-9.70179
▁sal	-9.70248
ra	-9.70373
▁result	-9.70385
▁garden	-9.70421
▁glass	-9.70479
▁wear	-9.70518
▁peligro	-9.70531
▁television	-9.70543
▁miró	-9.70545
▁jugando	-9.70551
▁dijiste	-9.70554
▁lucky	-9.70562
▁seven	-9.70571
▁seemed	-9.70724
▁deal	-9.70835
▁opened	-9.70924
▁dormido	-9.70953
▁ganar	-9.71022
"	-9.71176
u	-9.71363
▁paraguas	-9.71413
▁somebody	-9.71413
▁venga	-9.71465
cabo	-9.71469
▁estuve	-9.71647
▁walked	-9.71735
ción	-9.71941
▁guess	-9.72219
▁almuerzo	-9.7229
▁dirección	-9.7229
▁prefiero	-9.7229
▁road	-9.7229
▁estudiando	-9.72302
▁finally	-9.72342
▁caso	-9.72726
▁shirt	-9.72795
▁aire	-9.72839
▁peor	-9.73104
▁nuestros	-9.73163
▁cuesta	-9.73189
▁pasada	-9.73202
▁side	-9.73209
▁vendrá	-9.73246
▁llamar	-9.73427
ada	-9.73529
▁movies	-9.73731
▁expect	-9.73851
▁comió	-9.74069
▁entró	-9.74075
▁animales	-9.74117
▁haz	-9.74166
▁dime	-9.74179
▁missed	-9.74274
ate	-9.74518
▁choice	-9.74525
▁abuelo	-9.74555
▁accept	-9.74833
▁universidad	-9.74969
▁figure	-9.7497
rought	-9.7497
▁husband	-9.74975
▁driver	-9.75044
▁shut	-9.75071
▁sad	-9.75134
▁estaría	-9.75202
▁lawyer	-9.75466
▁apple	-9.75526
▁minute	-9.75528
▁pedí	-9.75639
▁talked	-9.75713
▁sent	-9.7576
▁clear	-9.75835
▁llamó	-9.75878
▁lying	-9.75881
▁deberes	-9.75908
▁feeling	-9.75918
▁states	-9.7605
▁mía	-9.76155
▁learned	-9.76261
▁patient	-9.7633
▁seguir	-9.76399
▁realize	-9.76633
▁either	-9.76795
▁situación	-9.76796
▁sell	-9.76949
▁smoke	-9.77138
▁rules	-9.77538
vas	-9.77542
▁attention	-9.77721
▁quizá	-9.77721
▁thanks	-9.77721
▁rompió	-9.77721
▁siendo	-9.77743
▁feed	-9.77762
▁viven	-9.77889
▁arm	-9.77957
▁fine	-9.78084
▁hat	-9.78108
▁barco	-9.78255
▁estúpido	-9.78262
▁estabas	-9.78321
▁dance	-9.78477
▁piensas	-9.78609
▁danger	-9.78655
▁leaving	-9.78656
▁habría	-9.78658
▁completamente	-9.7866
▁mamá	-9.78663
▁rato	-9.78691
▁animals	-9.78733
▁forward	-9.78753
▁meat	-9.78799
▁control	-9.79156
▁wall	-9.79235
turned	-9.79309
▁ok	-9.79318
▁pick	-9.79491
▁playa	-9.79512
▁driving	-9.79599
▁opinión	-9.79599
▁twice	-9.79599
▁situation	-9.796
▁paris	-9.79664
▁crying	-9.79705
▁fishing	-9.79768
▁digas	-9.79807
▁vale	-9.79904
▁boys	-9.80003
▁lago	-9.80028
▁seeing	-9.80032
▁arrive	-9.80034
▁wash	-9.80084
▁peso	-9.80192
▁test	-9.80469
▁pudiera	-9.80552
▁winter	-9.80552
▁share	-9.80553
▁desk	-9.80559
▁finalmente	-9.80586
▁solve	-9.80607
▁invited	-9.80645
to	-9.80721
▁visited	-9.80836
▁drinking	-9.80874
▁llev	-9.80965
▁promise	-9.81018
▁decision	-9.8109
▁mar	-9.81092
▁p	-9.81154
▁hermosa	-9.81162
▁minuto	-9.81184
▁case	-9.81311
▁normal	-9.81453
▁terminó	-9.81513
▁vacation	-9.81514
▁invierno	-9.81515
▁probablemente	-9.81528
▁beach	-9.81531
▁trata	-9.81595
▁sala	-9.81604
▁pen	-9.81632
▁llevaba	-9.81645
▁sentó	-9.81658
▁known	-9.81858
▁responder	-9.82225
▁parís	-9.82484
▁imposible	-9.82487
▁address	-9.82489
▁ocurrió	-9.82493
▁grandfather	-9.82505
▁alive	-9.82532
▁lake	-9.82634
▁closed	-9.82757
▁irme	-9.82763
▁kids	-9.83017
aba	-9.83193
▁causa	-9.83261
▁vaso	-9.83457
▁blue	-9.83464
▁cuchillo	-9.83464
▁suppose	-9.83464
▁traffic	-9.83464
▁divertido	-9.83464
▁worried	-9.83466
▁completely	-9.83478
▁ayudarte	-9.83697
rank	-9.8373
▁pedir	-9.84079
▁medio	-9.84081
▁peligroso	-9.84115
▁resolver	-9.84164
▁cambiar	-9.84183
puede	-9.84278
▁boca	-9.84424
▁excuse	-9.84454
▁próxima	-9.84454
▁airport	-9.84455
▁atrás	-9.84456
▁pieza	-9.84457
▁ocupada	-9.84458
▁papá	-9.84469
▁carro	-9.84547
▁ello	-9.84943
▁second	-9.85127
▁ticket	-9.85155
▁seat	-9.85183
▁pase	-9.85323
▁papel	-9.85388
▁shopping	-9.85455
▁knife	-9.85457
▁duele	-9.85478
▁meses	-9.85659
▁sleeping	-9.85768
▁learning	-9.85791
▁pena	-9.85803
▁eggs	-9.85898
crees	-9.86115
▁mountain	-9.86177
▁abroad	-9.86465
▁aeropuerto	-9.86465
▁mayoría	-9.86498
▁per	-9.86784
▁casado	-9.86792
tú	-9.87074
▁triste	-9.87182
▁montaña	-9.87205
▁ship	-9.8722
▁kiss	-9.87253
▁kitchen	-9.87485
▁londres	-9.87485
▁voz	-9.87485
▁writing	-9.87485
▁abrió	-9.87485
▁comido	-9.87486
▁london	-9.87489
▁intentando	-9.87495
▁desearía	-9.87496
▁estábamos	-9.87505
▁venido	-9.87506
▁lamento	-9.87537
▁singing	-9.87627
▁worth	-9.87969
▁capital	-9.88055
▁weekend	-9.88214
▁less	-9.88236
▁guy	-9.88259
▁fight	-9.88357
▁simple	-9.88454
▁cine	-9.88516
▁ambos	-9.88519
▁hubo	-9.8852
▁younger	-9.88559
▁vayas	-9.88616
▁promised	-9.88676
▁viajar	-9.88712
▁mantener	-9.88764
▁recordar	-9.88764
▁huevos	-9.88986
▁esos	-9.89116
▁hiciera	-9.8914
▁dejes	-9.89412
▁empieza	-9.89558
▁llegué	-9.89558
▁abrigo	-9.89559
▁suele	-9.89581
▁hiding	-9.89605
▁sense	-9.89707
▁though	-9.89879
ya	-9.89927
▁opinion	-9.90266
▁partido	-9.90333
ro	-9.90344
▁abrir	-9.90459
▁serious	-9.90572
▁except	-9.90609
▁medicine	-9.9061
▁coat	-9.90611
▁escritorio	-9.90611
▁siguió	-9.90614
▁intentó	-9.9062
▁carry	-9.90634
▁worse	-9.90644
▁ideas	-9.90664
▁passed	-9.90763
▁grandes	-9.90765
▁tenés	-9.9078
▁doubt	-9.90896
▁diga	-9.91087
querés	-9.91188
▁esas	-9.91262
▁morir	-9.91271
▁cocinar	-9.91322
▁manzana	-9.91447
▁impossible	-9.91674
▁soccer	-9.91674
▁wake	-9.91674
▁sitting	-9.91715
▁suelo	-9.91728
▁respecto	-9.9173
▁dile	-9.91772
▁also	-9.918
▁traje	-9.9184
▁manzanas	-9.91902
▁llaves	-9.92034
▁machine	-9.92478
▁alta	-9.92482
▁silla	-9.92513
▁begin	-9.92541
▁contar	-9.92545
▁success	-9.92746
▁corriendo	-9.9275
▁hablo	-9.92752
▁desayuno	-9.92753
▁hacía	-9.92757
▁sun	-9.92761
▁bailar	-9.92769
▁aquella	-9.9278
▁listening	-9.92946
▁tie	-9.93206
▁apples	-9.93207
▁pareces	-9.93283
tiene	-9.93569
▁piece	-9.93634
▁bird	-9.93638
▁afuera	-9.93669
▁amable	-9.93774
▁written	-9.93836
▁estuviera	-9.9384
▁jefe	-9.9384
▁serio	-9.93916
▁consider	-9.94147
▁chicos	-9.94333
tion	-9.94515
▁fotos	-9.94716
▁derecho	-9.94727
▁lleno	-9.94747
▁clima	-9.94843
▁tendrá	-9.94888
▁bebe	-9.94914
▁foreign	-9.9492
▁corazón	-9.94935
▁propia	-9.94935
▁siguiente	-9.94935
▁caliente	-9.94935
▁cielo	-9.94935
▁trató	-9.94936
▁felices	-9.94939
▁quedarme	-9.94993
▁funciona	-9.95018
unque	-9.95089
para	-9.95125
▁liked	-9.95277
▁taken	-9.95411
alguna	-9.95563
▁matar	-9.95566
ha	-9.95625
▁mensaje	-9.95818
▁teach	-9.95871
▁church	-9.96046
▁supongo	-9.96135
▁saben	-9.96143
▁expected	-9.96196
▁gas	-9.96566
▁past	-9.96816
▁paciente	-9.96941
▁chocolate	-9.96954
▁message	-9.96969
▁chair	-9.96976
▁rojo	-9.96979
▁brazo	-9.96994
▁precio	-9.96995
▁save	-9.97078
▁smart	-9.97169
▁iglesia	-9.9717
▁ninguno	-9.9717
▁sky	-9.9717
▁detrás	-9.9717
▁éste	-9.9717
▁ocho	-9.97177
▁olvidó	-9.97182
▁noticias	-9.97233
▁comprado	-9.97356
▁months	-9.9745
▁american	-9.97527
▁cause	-9.9753
▁irse	-9.97629
▁tierra	-9.98096
▁count	-9.98191
▁happens	-9.98196
▁iré	-9.98198
▁francia	-9.98306
▁escribió	-9.98315
▁mirando	-9.9833
▁favorita	-9.98363
▁confiar	-9.98404
▁walking	-9.98643
▁salt	-9.9872
▁dicen	-9.98765
▁amo	-9.98891
▁mil	-9.9893
▁languages	-9.99006
▁waste	-9.99038
▁perfect	-9.99066
▁keys	-9.99175
▁caro	-9.99246
▁horse	-9.99302
▁diciendo	-9.99456
▁viendo	-9.9946
▁pescado	-9.99482
▁segura	-9.99483
▁ball	-9.99528
▁pretend	-9.99564
▁correcto	-9.99662
▁france	-9.99716
▁correr	-9.99836
▁public	-10.0029
▁quiera	-10.003
▁quedé	-10.0036
▁torta	-10.0036
▁sentence	-10.0046
▁negro	-10.0047
▁contento	-10.0047
▁foot	-10.0052
▁tras	-10.0054
▁gun	-10.0055
▁join	-10.0061
▁across	-10.0062
▁empleo	-10.0062
▁osaka	-10.0062
▁thousand	-10.0062
▁shot	-10.0062
▁bread	-10.0062
▁boss	-10.0062
▁easily	-10.0062
▁shop	-10.0063
▁leído	-10.0064
▁refused	-10.0067
▁pared	-10.0087
▁girls	-10.0104
▁querés	-10.0116
podría	-10.0132
▁hermanos	-10.0145
con	-10.0146
▁smile	-10.0149
▁llega	-10.0151
▁domingo	-10.0168
▁comiendo	-10.018
▁choose	-10.018
▁comenzó	-10.0182
▁normalmente	-10.0184
▁carefully	-10.0187
▁domingos	-10.0191
cia	-10.0207
▁lend	-10.0214
▁reglas	-10.0218
▁warm	-10.0235
or	-10.0245
▁cuál	-10.0246
▁sounds	-10.0255
▁pictures	-10.0257
▁law	-10.0277
▁animal	-10.0282
▁abierta	-10.0283
▁fault	-10.0284
▁amiga	-10.0286
▁periódico	-10.0287
▁necesario	-10.0299
▁suena	-10.0299
▁novio	-10.0299
▁poca	-10.03
▁novela	-10.03
▁quedarse	-10.0303
▁estés	-10.0318
▁remind	-10.0323
▁ves	-10.0324
▁happening	-10.0333
▁cream	-10.0344
▁quiet	-10.0357
▁nació	-10.0379
▁surprise	-10.0388
▁novel	-10.0396
us	-10.0397
est	-10.0397
▁voice	-10.0406
▁vuelve	-10.0406
▁piso	-10.0406
▁pizza	-10.0407
▁anciano	-10.0408
▁bath	-10.0412
▁significa	-10.0414
▁future	-10.0419
▁prisa	-10.0419
▁almorzar	-10.0419
▁sacó	-10.0419
▁habló	-10.042
▁pueblo	-10.042
▁boyfriend	-10.042
▁inside	-10.043
▁dejado	-10.0434
▁noticia	-10.0534
▁enemy	-10.0541
▁tarta	-10.0541
▁claro	-10.0541
▁ayudó	-10.0542
▁yours	-10.0542
▁vosotros	-10.0544
▁simplemente	-10.0544
▁parar	-10.0549
▁necesitaba	-10.055
▁pon	-10.0557
▁usa	-10.0575
▁ride	-10.0588
▁verme	-10.0604
▁date	-10.0607
▁honest	-10.0614
▁remain	-10.0646
▁hundred	-10.0657
▁quedar	-10.0659
▁college	-10.0664
▁hicieron	-10.0664
▁chinese	-10.0664
iendo	-10.0667
▁campo	-10.0667
▁llegado	-10.0668
▁contó	-10.0672
vimos	-10.0673
▁pas	-10.0725
▁cartas	-10.0729
acaso	-10.074
▁difference	-10.0777
▁bridge	-10.0783
▁pobre	-10.0784
▁president	-10.0785
▁heavy	-10.0789
▁encontrado	-10.079
▁asiento	-10.0791
▁somewhere	-10.0791
▁suddenly	-10.0791
▁fear	-10.0792
▁evitar	-10.0792
▁demás	-10.0796
▁laughed	-10.0798
▁cooking	-10.0806
less	-10.0846
▁echar	-10.0862
ncluso	-10.0884
▁sign	-10.0887
▁gustaba	-10.0895
▁fat	-10.0897
▁puente	-10.0907
▁borracho	-10.091
▁caballo	-10.0913
▁eye	-10.0915
▁marry	-10.0916
▁cita	-10.0918
▁américa	-10.0919
▁presidente	-10.0921
▁gana	-10.0932
▁beat	-10.0933
th	-10.094
▁fuimos	-10.094
▁varia	-10.0942
▁buenos	-10.0954
▁entiende	-10.1001
▁escrito	-10.1002
▁ama	-10.1017
▁llegue	-10.1035
▁helado	-10.1038
▁propio	-10.1042
▁futuro	-10.1044
▁lloviendo	-10.1044
▁couple	-10.1044
▁policeman	-10.1045
▁translate	-10.1045
▁actually	-10.1045
▁slowly	-10.1046
▁mouth	-10.1046
▁pesar	-10.1047
▁humor	-10.105
▁failed	-10.1052
▁escribe	-10.1052
▁entered	-10.1054
▁pescar	-10.1057
▁shower	-10.1062
▁standing	-10.1064
▁sentía	-10.1065
▁stolen	-10.1072
▁escucha	-10.1086
▁c	-10.1087
▁decirme	-10.1088
ás	-10.1122
▁wor	-10.113
▁fix	-10.1162
▁rock	-10.117
▁regret	-10.1171
▁prueba	-10.1173
▁newspaper	-10.1174
▁experiencia	-10.1174
▁twenty	-10.1174
▁earth	-10.1174
▁empty	-10.1174
▁price	-10.1174
▁acostumbrado	-10.1175
▁idioma	-10.1175
▁blood	-10.1175
▁verdaderamente	-10.1175
▁habrá	-10.1177
▁none	-10.1186
▁estudia	-10.1186
▁ayudarme	-10.1195
▁t	-10.12
▁aware	-10.1213
▁report	-10.1215
▁green	-10.1232
▁correct	-10.1237
▁semanas	-10.1255
▁experience	-10.129
▁escape	-10.1292
▁prison	-10.1304
▁querría	-10.1305
▁dejé	-10.1305
▁azúcar	-10.1306
▁público	-10.1306
▁orgulloso	-10.1306
▁necessary	-10.1306
▁check	-10.1306
▁marido	-10.1306
▁eight	-10.1306
▁larga	-10.1317
▁llevo	-10.1317
bajo	-10.1318
▁paseo	-10.1321
▁limpiar	-10.1324
▁moved	-10.133
▁toca	-10.1344
▁volveré	-10.1353
▁plans	-10.138
▁siente	-10.1403
▁compras	-10.1411
▁brothers	-10.1419
▁sentí	-10.142
▁german	-10.1432
▁enfermedad	-10.1432
▁fly	-10.1432
▁enfadado	-10.1437
▁nervous	-10.1439
▁funny	-10.1439
▁kyoto	-10.1439
▁casó	-10.1441
▁sugar	-10.1442
▁smell	-10.1443
▁dientes	-10.1454
▁leaves	-10.1474
▁ley	-10.1479
▁hará	-10.1544
ought	-10.1569
▁durmiendo	-10.1574
▁storm	-10.1574
▁tormenta	-10.1575
▁button	-10.1577
▁enamorado	-10.1577
▁daño	-10.1578
▁fall	-10.158
▁pájaro	-10.1581
▁ponga	-10.1584
▁correo	-10.1586
▁viste	-10.1603
▁guys	-10.1609
co	-10.1638
▁eats	-10.1668
▁india	-10.167
▁veía	-10.1673
▁seas	-10.1686
▁deep	-10.1707
▁luna	-10.1708
▁wallet	-10.1711
▁bolsa	-10.1712
▁dijeron	-10.1713
▁blind	-10.1713
▁bottle	-10.1718
▁wonderful	-10.1719
▁joke	-10.1719
▁sentado	-10.1719
▁gift	-10.1722
▁perfecto	-10.1727
▁kissed	-10.1727
▁dado	-10.1744
▁buenas	-10.176
ting	-10.1763
▁sino	-10.177
▁dad	-10.1792
▁haces	-10.181
▁vario	-10.1813
▁enferma	-10.185
▁luego	-10.185
▁proyecto	-10.185
▁stood	-10.185
▁veinte	-10.185
▁negó	-10.185
▁zoo	-10.185
▁grew	-10.185
▁llegará	-10.185
▁matemáticas	-10.1855
▁famoso	-10.1857
▁contacto	-10.1859
▁recuerda	-10.1859
▁diferente	-10.186
▁list	-10.1868
▁means	-10.1883
▁verlo	-10.1885
▁staying	-10.1929
▁vimos	-10.194
▁prestar	-10.1943
▁clock	-10.195
▁especial	-10.1981
▁azul	-10.1984
▁decide	-10.1989
▁sintió	-10.1992
▁agradable	-10.1997
▁received	-10.1997
▁native	-10.1998
▁vivía	-10.2002
▁fact	-10.2013
▁llena	-10.2033
▁mejores	-10.208
▁murder	-10.212
▁borrow	-10.2122
▁attend	-10.2122
▁arma	-10.2123
▁discuss	-10.2123
▁planes	-10.2129
▁owe	-10.213
▁corbata	-10.2134
▁jackson	-10.2134
▁beginning	-10.2134
▁worst	-10.2135
▁grave	-10.2141
▁bonita	-10.2145
▁preocupado	-10.2147
▁botella	-10.2148
▁bar	-10.2153
▁bother	-10.2161
▁calm	-10.2181
▁igual	-10.2189
▁decirte	-10.2206
▁speech	-10.2271
▁valor	-10.2272
▁discurso	-10.2279
▁taught	-10.2279
▁tuviera	-10.2279
▁abuela	-10.2279
▁prometió	-10.2279
▁quise	-10.228
▁creía	-10.2281
▁diferencia	-10.2281
▁smiled	-10.2297
▁paso	-10.23
▁herido	-10.2303
▁birds	-10.2306
▁dios	-10.2314
▁pone	-10.2333
▁hang	-10.2346
▁temo	-10.2382
▁cuidar	-10.2397
▁europe	-10.2413
▁charge	-10.2423
▁spring	-10.2426
▁information	-10.2426
▁oferta	-10.2426
▁información	-10.2426
▁planning	-10.2426
▁common	-10.2426
▁inmediatamente	-10.2426
▁fruit	-10.2437
▁alegr	-10.2443
▁line	-10.2447
▁depende	-10.246
▁yen	-10.2527
▁ayude	-10.2545
▁top	-10.2559
▁conocí	-10.256
urante	-10.257
▁común	-10.2572
▁village	-10.2575
▁encima	-10.2575
▁levantó	-10.2575
▁nueve	-10.2575
▁tampoco	-10.2575
▁decidido	-10.2575
▁built	-10.2575
▁totalmente	-10.2576
▁soup	-10.2577
▁tratando	-10.2577
▁podrá	-10.2582
▁sight	-10.2584
▁aceptar	-10.2585
▁cambio	-10.2593
▁bill	-10.2595
ieron	-10.2601
▁king	-10.2602
▁fit	-10.2619
ce	-10.262
▁watched	-10.2638
▁feelings	-10.2639
▁parado	-10.2652
▁deje	-10.2656
▁succeed	-10.2714
▁exam	-10.272
▁europa	-10.2726
▁llueve	-10.2726
▁máquina	-10.2726
▁silencio	-10.2726
▁roto	-10.2727
▁enojado	-10.2727
▁guapa	-10.2727
▁sorprendió	-10.2727
▁neither	-10.2728
▁sopa	-10.273
▁hago	-10.2733
▁film	-10.2743
▁trees	-10.2744
▁darle	-10.2746
▁tuyo	-10.2757
▁volverá	-10.2766
▁haberlo	-10.2774
▁god	-10.2776
▁weeks	-10.2788
eso	-10.2816
▁dan	-10.2836
▁odia	-10.2855
p	-10.2863
▁crowd	-10.287
▁alemán	-10.288
▁primavera	-10.288
▁repente	-10.288
▁studied	-10.288
▁shall	-10.288
▁assume	-10.288
▁cheese	-10.288
▁apartment	-10.288
▁anywhere	-10.2882
▁moon	-10.2882
▁enseñó	-10.2883
▁cierra	-10.2884
▁single	-10.2887
▁sentimientos	-10.2892
▁despierto	-10.2897
▁picnic	-10.2897
▁rang	-10.2902
▁enemigo	-10.2905
▁junto	-10.2908
▁olvidé	-10.2912
▁resto	-10.292
▁lavar	-10.2921
▁puedas	-10.2947
▁hacen	-10.2953
▁abajo	-10.2976
▁grow	-10.2986
▁comí	-10.3008
▁usual	-10.303
án	-10.303
▁conocido	-10.3037
▁fuji	-10.3037
▁botón	-10.3037
▁mintiendo	-10.3037
▁guilty	-10.3037
▁respect	-10.3039
▁teeth	-10.3039
▁type	-10.3047
▁quedarte	-10.3048
▁sorprendido	-10.3062
▁web	-10.3063
▁ésta	-10.3065
▁plays	-10.3073
▁andar	-10.3103
▁leg	-10.3118
▁bear	-10.3134
alguien	-10.3147
▁forgive	-10.3155
▁fill	-10.316
▁deserve	-10.318
▁apologize	-10.318
▁menor	-10.319
▁bosque	-10.3195
▁history	-10.3195
▁project	-10.3195
▁slept	-10.3195
▁sorpresa	-10.3195
▁yellow	-10.3195
▁paz	-10.3195
▁grandmother	-10.3196
▁ganó	-10.3196
▁adelante	-10.3196
▁tonto	-10.3197
▁lentes	-10.3197
▁rule	-10.3204
▁nine	-10.321
▁carrera	-10.322
▁painting	-10.3233
▁cualquiera	-10.3234
▁tengas	-10.328
▁cards	-10.33
ver	-10.3315
▁welcome	-10.3342
▁coger	-10.3344
▁sepa	-10.3355
▁funeral	-10.3357
▁vuelto	-10.3357
▁bike	-10.3357
▁fence	-10.3357
▁resfriado	-10.3357
▁earlier	-10.3357
▁seguridad	-10.3357
▁mitad	-10.3357
▁immediately	-10.3357
hrew	-10.3357
▁estáis	-10.3357
▁wedding	-10.3358
▁soportar	-10.3358
b	-10.3359
▁prestado	-10.3359
▁throw	-10.3359
▁locked	-10.3372
▁mom	-10.3379
▁saturday	-10.3381
▁rey	-10.3383
▁pintura	-10.3386
▁agreed	-10.3386
▁segundo	-10.3387
▁deseo	-10.3388
▁pelota	-10.3393
▁baja	-10.3397
▁duda	-10.3408
▁sonó	-10.3414
▁verde	-10.3415
▁olvides	-10.3418
cogió	-10.3425
▁likely	-10.344
▁drinks	-10.3443
▁star	-10.3464
▁crime	-10.3482
▁películas	-10.3482
▁convince	-10.3506
▁pájaros	-10.3513
▁tomado	-10.3513
▁jóvenes	-10.3521
▁medicina	-10.3521
▁vuestra	-10.3521
▁premio	-10.3521
▁intención	-10.3522
▁held	-10.3522
▁pocos	-10.3523
▁cars	-10.3523
▁tele	-10.3537
▁esperanza	-10.3553
▁quitó	-10.3556
▁finger	-10.3557
▁ojo	-10.3561
▁idiota	-10.3562
▁alegra	-10.3566
▁tratar	-10.3596
▁player	-10.3602
▁sabemos	-10.3605
▁hacerte	-10.3636
▁pertenece	-10.3661
▁conocía	-10.3685
▁prisión	-10.3687
▁ahead	-10.3687
▁rápidamente	-10.3688
▁satisfied	-10.3688
▁boat	-10.3689
▁escuchando	-10.3689
▁ladrón	-10.3689
▁taller	-10.369
▁position	-10.3691
▁culpable	-10.3691
▁intentar	-10.3696
▁ech	-10.37
▁painted	-10.37
idad	-10.3703
▁returned	-10.3714
▁admit	-10.3722
▁grupo	-10.3722
▁estudio	-10.3722
▁vieja	-10.3723
▁otras	-10.3746
ré	-10.3749
▁asking	-10.3781
▁rid	-10.3789
▁alarm	-10.3798
▁negocios	-10.38
f	-10.3818
1	-10.384
▁breath	-10.3843
▁ordenador	-10.385
▁canadá	-10.3857
▁despacio	-10.3857
▁multitud	-10.3857
▁oyó	-10.3857
▁classroom	-10.3857
▁cruel	-10.3857
▁memoria	-10.3857
▁diario	-10.3857
▁olvidado	-10.3858
▁extra	-10.3859
▁digo	-10.3859
béis	-10.3865
▁allowed	-10.387
▁tears	-10.3871
▁picked	-10.3879
▁museo	-10.3889
▁museum	-10.3889
▁vuestro	-10.3898
▁alcohol	-10.3959
▁interesa	-10.3981
▁queso	-10.4
▁computador	-10.4009
▁personal	-10.4013
▁veré	-10.4026
▁alemania	-10.4029
▁ashamed	-10.4029
▁izquierda	-10.4029
▁paciencia	-10.4029
▁woke	-10.4029
▁video	-10.4029
▁government	-10.4029
▁kioto	-10.403
▁hermoso	-10.403
▁cansada	-10.403
▁germany	-10.4033
▁faster	-10.4034
▁paint	-10.4034
▁probable	-10.4036
▁covered	-10.4038
▁harder	-10.4041
▁noticed	-10.4044
▁árboles	-10.4045
son	-10.4046
▁laugh	-10.4049
les	-10.4057
▁dressed	-10.406
▁preferiría	-10.4064
▁listened	-10.407
▁espalda	-10.4071
▁tema	-10.408
▁miles	-10.4086
▁enviar	-10.4089
▁fired	-10.4093
▁hablan	-10.4106
▁wears	-10.4118
▁oro	-10.4132
▁enter	-10.4151
era	-10.4155
▁special	-10.418
▁cerrar	-10.4196
▁sientes	-10.4202
▁support	-10.4204
▁furniture	-10.4205
▁gafas	-10.4205
▁tráfico	-10.4205
▁university	-10.4205
▁gustó	-10.4205
▁quiso	-10.4205
▁headache	-10.4205
▁cambiado	-10.4206
▁raro	-10.4206
▁oscuro	-10.4207
▁bedroom	-10.4209
▁juega	-10.421
▁tía	-10.4211
▁casarse	-10.4216
▁washing	-10.4222
▁aunt	-10.4226
▁honesto	-10.423
▁correcta	-10.4237
▁allow	-10.4239
▁amaba	-10.4241
▁principio	-10.4246
▁lied	-10.4247
▁roja	-10.4251
▁canada	-10.4256
▁liar	-10.4267
▁platos	-10.4285
▁nuevos	-10.4302
▁traer	-10.4327
▁100	-10.4331
▁podés	-10.4334
▁stole	-10.4344
ciones	-10.4364
▁fond	-10.4373
▁absent	-10.4383
▁arroz	-10.4383
▁courage	-10.4383
▁escuchó	-10.4383
▁sofá	-10.4383
▁bajó	-10.4383
▁rice	-10.4383
▁prize	-10.4384
▁unfortunately	-10.4384
▁caminando	-10.4384
▁subject	-10.4384
▁mostró	-10.4384
▁sonrió	-10.4385
▁solución	-10.4385
▁avoid	-10.4388
▁complaining	-10.4389
▁golpeó	-10.4392
▁scared	-10.4393
▁buscar	-10.4398
▁theater	-10.4402
▁vegetables	-10.4403
▁pair	-10.4425
▁suit	-10.4426
▁nervioso	-10.4426
▁wood	-10.4434
▁levanta	-10.445
▁profesora	-10.4468
rá	-10.4475
▁forever	-10.4486
▁merece	-10.4516
▁rains	-10.4519
▁ellas	-10.4519
▁corta	-10.4522
▁judge	-10.454
▁peace	-10.4542
▁notice	-10.4554
▁pastel	-10.4559
▁luck	-10.4561
▁cáncer	-10.4565
▁delicious	-10.4565
▁ejercicio	-10.4565
▁introduce	-10.4565
▁japoneses	-10.4565
▁permiso	-10.4565
▁sucedió	-10.4565
▁viento	-10.4565
▁vuelo	-10.4565
▁fresh	-10.4565
▁spanish	-10.4565
▁aprendí	-10.4565
▁gobierno	-10.4565
▁brush	-10.4565
▁horrible	-10.4565
▁robado	-10.4565
▁interesado	-10.4569
▁disappointed	-10.457
▁cancer	-10.4574
▁preguntaba	-10.4574
bido	-10.4582
▁vayamos	-10.4584
ia	-10.4588
▁decid	-10.4592
▁island	-10.4599
▁ended	-10.4606
▁map	-10.4607
▁entera	-10.4609
▁preparado	-10.4613
▁chicas	-10.4615
▁ring	-10.4617
▁chino	-10.4617
▁llamada	-10.4619
▁soldiers	-10.4629
▁soldados	-10.4629
▁rent	-10.4633
mong	-10.4637
▁sacar	-10.4658
▁sang	-10.4722
▁natural	-10.4741
▁windows	-10.4743
▁body	-10.475
▁course	-10.475
▁encuentro	-10.475
▁friday	-10.475
▁hicimos	-10.475
▁innocent	-10.475
▁license	-10.475
▁purpose	-10.475
▁sonrisa	-10.475
▁straight	-10.475
▁truck	-10.475
▁viernes	-10.475
▁dropped	-10.475
▁guste	-10.475
▁chicago	-10.4751
▁corrió	-10.4752
▁hielo	-10.4752
▁middle	-10.4752
▁centro	-10.4752
▁bare	-10.4752
▁desayunar	-10.4754
▁invite	-10.4754
▁cargo	-10.4756
▁arrested	-10.4758
▁ex	-10.4768
▁abre	-10.4776
▁explained	-10.4778
▁missing	-10.478
▁wind	-10.4781
▁raise	-10.4787
▁paró	-10.4791
▁af	-10.4793
▁corto	-10.4799
▁bolígrafo	-10.4804
▁trampa	-10.4806
▁pierna	-10.4808
▁escaleras	-10.4828
▁answered	-10.4832
▁sports	-10.4835
▁tra	-10.4842
▁conocen	-10.4848
▁ducha	-10.4849
▁arreglar	-10.4853
todavía	-10.489
▁familiar	-10.4896
▁corre	-10.4903
▁partir	-10.4917
▁parecen	-10.4918
▁post	-10.4926
▁heat	-10.4938
▁boring	-10.4939
▁hobby	-10.4939
▁jacket	-10.4939
▁stuck	-10.4939
▁understood	-10.4939
▁recognize	-10.4939
▁consiguió	-10.4939
▁llorando	-10.4939
▁profundamente	-10.494
▁linda	-10.494
▁actor	-10.4943
▁yenes	-10.4947
▁reached	-10.4947
▁madera	-10.4948
▁limpia	-10.4959
▁darme	-10.4968
▁ordered	-10.4969
▁nuestras	-10.4975
▁lee	-10.4992
▁rara	-10.4992
▁discutir	-10.4995
▁frase	-10.4995
▁fruta	-10.4999
▁promesa	-10.4999
▁casada	-10.5005
▁cd	-10.5023
▁belongs	-10.5031
▁conocer	-10.5067
▁español	-10.5071
▁f	-10.5091
▁legs	-10.51
▁appreciate	-10.5116
▁attack	-10.5119
▁drop	-10.5121
▁inocente	-10.5131
▁instead	-10.5131
▁intelligent	-10.5131
▁lápiz	-10.5131
▁tarjeta	-10.5131
▁duty	-10.5131
▁llame	-10.5131
▁viviendo	-10.5131
▁stick	-10.5131
▁conductor	-10.5131
▁accused	-10.5132
▁power	-10.5132
▁dishes	-10.5133
▁isla	-10.5133
▁race	-10.5135
▁manejar	-10.5137
▁seriously	-10.5139
▁low	-10.5147
▁convinced	-10.5149
▁extreme	-10.5151
▁bella	-10.5157
▁saved	-10.5158
k	-10.5159
▁tuya	-10.5159
▁explicar	-10.5185
▁cerrada	-10.5191
▁satisfecho	-10.5192
▁flower	-10.5197
▁negocio	-10.5198
▁lock	-10.5203
▁contact	-10.5222
▁dedo	-10.5243
▁permitir	-10.5256
ford	-10.5275
▁precios	-10.5284
▁duerme	-10.5286
▁san	-10.5298
▁cool	-10.5326
▁aburrido	-10.5327
▁consciente	-10.5327
▁frecuencia	-10.5327
▁midnight	-10.5327
▁opción	-10.5327
▁behavior	-10.5327
▁space	-10.5327
▁respondió	-10.5327
▁sweater	-10.5328
▁recently	-10.5328
▁absolutely	-10.5328
▁bored	-10.533
▁mapa	-10.5338
▁elegir	-10.5342
▁averiguar	-10.5343
▁sangre	-10.5343
▁orden	-10.5344
▁tenéis	-10.5344
▁pies	-10.5347
▁países	-10.5357
▁enseñar	-10.5365
▁darte	-10.5371
▁crimen	-10.5374
él	-10.5385
▁exercise	-10.5389
▁rica	-10.5392
▁incendio	-10.5392
▁nativo	-10.5393
▁pencil	-10.5394
▁encuentra	-10.5394
▁verdadero	-10.5394
▁singer	-10.5394
▁romper	-10.5402
▁intenta	-10.5403
▁speaker	-10.541
robó	-10.5445
▁irte	-10.5455
ful	-10.5456
▁agrada	-10.548
esto	-10.5486
▁believed	-10.5489
▁fool	-10.5515
▁hung	-10.5525
▁account	-10.5527
▁awake	-10.5527
▁cash	-10.5527
▁cuerpo	-10.5527
▁england	-10.5527
▁explanation	-10.5527
▁harvard	-10.5527
▁injured	-10.5527
▁japonesa	-10.5527
▁segunda	-10.5527
▁chaqueta	-10.5527
▁cortó	-10.5527
▁medianoche	-10.5527
▁escribiendo	-10.5527
▁bigger	-10.5529
▁shy	-10.553
ca	-10.553
▁sooner	-10.554
▁fighting	-10.5547
▁sold	-10.5582
▁employees	-10.5582
▁cantante	-10.5596
▁group	-10.5596
▁comenzar	-10.5598
▁broma	-10.5599
▁entrada	-10.5599
▁mentira	-10.5606
id	-10.5627
▁hables	-10.5639
▁agarr	-10.5663
▁necesitan	-10.5672
▁mirar	-10.5674
▁cruz	-10.5718
▁fail	-10.5719
▁decidir	-10.5721
▁general	-10.5725
▁compare	-10.5728
▁idiomas	-10.573
▁prices	-10.573
▁querías	-10.5731
▁accord	-10.5731
▁view	-10.5731
▁escuché	-10.5731
▁espacio	-10.5731
▁fiebre	-10.5731
▁toilet	-10.5731
▁murieron	-10.5731
▁nací	-10.5731
▁pasaporte	-10.5731
▁passport	-10.5731
▁dirty	-10.5731
▁copy	-10.5732
▁descanso	-10.5732
▁dispuesto	-10.5733
▁salvo	-10.5733
▁huele	-10.5734
▁entire	-10.5738
▁healthy	-10.5739
▁card	-10.574
▁human	-10.5755
▁daré	-10.576
▁convencer	-10.578
▁empleados	-10.5798
▁cuerda	-10.5799
▁risk	-10.5804
▁línea	-10.5804
▁boda	-10.5804
▁cookies	-10.5807
▁flor	-10.581
▁modo	-10.581
▁resultado	-10.5811
ted	-10.5831
▁keeps	-10.5831
▁hey	-10.5833
▁yes	-10.5835
▁dreams	-10.585
▁dices	-10.5862
▁bell	-10.5881
podemos	-10.5891
▁protect	-10.5892
▁art	-10.5895
▁apareció	-10.5908
▁relax	-10.5917
▁knock	-10.5931
▁fair	-10.5935
▁hid	-10.5937
▁gold	-10.5938
▁escapar	-10.5938
▁dancing	-10.594
▁inglaterra	-10.594
▁themselves	-10.594
▁mood	-10.594
▁explicación	-10.594
▁billetera	-10.594
▁size	-10.5942
▁sisters	-10.5944
▁aprendiendo	-10.5944
▁hazlo	-10.5945
▁pregunté	-10.5946
▁pedirle	-10.5947
▁ocultar	-10.5948
▁bote	-10.5951
▁laughing	-10.5951
▁harm	-10.5967
▁accepted	-10.5968
ió	-10.598
▁feels	-10.5995
▁bonito	-10.6017
▁sábado	-10.602
▁muchacho	-10.602
▁handed	-10.6021
▁deporte	-10.6025
na	-10.6049
▁encantan	-10.6076
▁talks	-10.6084
adamente	-10.6096
▁vivid	-10.6097
.000	-10.6099
▁trae	-10.6102
▁italia	-10.6109
▁anda	-10.6114
▁tanta	-10.613
▁hermanas	-10.6144
▁cien	-10.6151
▁lonely	-10.6152
▁casualidad	-10.6152
▁derecha	-10.6152
▁bromeando	-10.6153
▁suicide	-10.6153
▁monte	-10.6153
▁fever	-10.6153
▁involved	-10.6154
▁italy	-10.6155
▁acabó	-10.6157
▁mató	-10.6158
▁recibió	-10.6158
▁motor	-10.616
▁preocupes	-10.6165
▁fuiste	-10.617
▁expecting	-10.6175
▁canciones	-10.6184
▁vuelva	-10.6196
▁pintar	-10.6196
▁recibir	-10.62
".	-10.6209
▁idiot	-10.622
▁gusto	-10.6232
▁rained	-10.6232
▁magazine	-10.6237
▁maleta	-10.6237
▁página	-10.6237
ella	-10.6239
▁importar	-10.6246
▁luces	-10.6251
▁irá	-10.6296
▁piernas	-10.6302
jo	-10.6311
▁ventanas	-10.635
▁treat	-10.6355
▁mente	-10.6363
▁sentir	-10.6365
▁cheap	-10.6368
giving	-10.6369
▁absoluta	-10.637
▁comienza	-10.637
▁cárcel	-10.637
▁genial	-10.637
▁seldom	-10.637
▁comportamiento	-10.637
▁asesinato	-10.637
▁cambió	-10.637
▁oscuridad	-10.637
▁propuesta	-10.637
▁fresco	-10.637
▁vine	-10.637
▁math	-10.6371
▁robaron	-10.6372
▁butter	-10.6372
▁oil	-10.6373
▁cumplir	-10.6373
▁explicó	-10.6373
▁arte	-10.6384
▁solas	-10.6387
▁fed	-10.6392
ría	-10.6393
▁considered	-10.6395
▁pasamos	-10.6399
▁followed	-10.6409
▁begins	-10.6415
▁pasará	-10.6415
▁volar	-10.6421
▁casar	-10.6444
▁leí	-10.6445
aste	-10.6448
▁chicken	-10.6452
▁flight	-10.6454
▁política	-10.6457
▁revista	-10.646
▁calling	-10.6477
▁suyo	-10.6483
▁lack	-10.6487
ación	-10.6517
go	-10.6532
los	-10.6559
▁das	-10.6579
▁ante	-10.659
▁countries	-10.6592
▁jealous	-10.6592
▁pérdida	-10.6592
▁sencilla	-10.6592
▁thief	-10.6592
▁suspect	-10.6592
▁camión	-10.6592
▁dudo	-10.6592
▁cometido	-10.6592
▁continue	-10.6592
▁perdón	-10.6592
▁destino	-10.6592
▁cried	-10.6594
▁fría	-10.6595
▁managed	-10.66
▁podé	-10.66
▁cerró	-10.6603
▁land	-10.6604
▁fácilmente	-10.6607
▁besó	-10.661
▁raised	-10.6611
▁dedos	-10.6616
▁eras	-10.6619
▁hagamos	-10.662
amente	-10.6633
▁prove	-10.6638
▁lay	-10.6653
▁vote	-10.6664
▁preguntar	-10.6683
▁trozo	-10.6685
▁pocket	-10.6686
▁sueños	-10.671
▁cortar	-10.6715
▁admitt	-10.6725
▁meant	-10.673
conoces	-10.6735
▁hablas	-10.6737
▁hablado	-10.6751
▁uso	-10.6783
tu	-10.6806
▁jokes	-10.6806
▁conoces	-10.6808
▁útil	-10.6812
▁ciego	-10.6819
▁eventually	-10.6819
▁football	-10.6819
▁hokkaido	-10.6819
▁inmediato	-10.6819
▁internet	-10.6819
▁ourselves	-10.6819
▁propósito	-10.6819
▁quince	-10.6819
▁solution	-10.6819
▁famosa	-10.6819
▁roof	-10.6819
▁facilidad	-10.6819
▁mediodía	-10.6819
▁memory	-10.6819
▁unlikely	-10.6819
▁excelente	-10.682
▁lady	-10.6821
▁importaría	-10.6822
▁quédate	-10.6824
▁techo	-10.6825
ies	-10.6827
▁trabajó	-10.6827
▁llamado	-10.6829
▁lágrimas	-10.6833
▁galletas	-10.6836
▁muebles	-10.6839
▁subió	-10.6841
▁extrem	-10.6869
▁exist	-10.6898
▁taste	-10.6907
▁ocupados	-10.6909
▁blanca	-10.6914
▁supiera	-10.6918
▁piedra	-10.6918
▁neighbor	-10.692
▁gra	-10.6929
▁stranger	-10.693
▁parada	-10.6941
usted	-10.6942
▁ma	-10.6956
▁games	-10.6969
▁diet	-10.7022
áis	-10.7024
▁iremos	-10.7032
▁stuff	-10.7038
▁appear	-10.704
▁enseña	-10.7041
▁televisor	-10.7044
▁similar	-10.7045
▁canta	-10.7047
▁rude	-10.7052
▁barato	-10.7052
▁demasiada	-10.7052
▁stairs	-10.7052
▁teatro	-10.7052
▁feet	-10.7052
▁escondiendo	-10.7052
▁joking	-10.7052
▁peces	-10.7052
▁sabido	-10.7052
▁forgotten	-10.7052
▁corner	-10.7052
▁recibí	-10.7052
▁denied	-10.7053
▁step	-10.7053
▁pegó	-10.7053
▁salido	-10.7053
▁éstos	-10.7054
▁useful	-10.7054
▁menu	-10.7055
▁delante	-10.7056
▁rope	-10.7061
▁forced	-10.7061
▁climbed	-10.7062
▁llamaré	-10.7067
▁entero	-10.7068
▁continued	-10.7069
▁doble	-10.7071
▁dieta	-10.7079
▁compraste	-10.7081
▁washed	-10.7082
▁contestar	-10.7083
▁cometer	-10.7088
▁helping	-10.7106
▁extraña	-10.7112
▁sois	-10.7119
▁míos	-10.7119
▁quedaré	-10.7131
▁willing	-10.7141
▁invitados	-10.715
▁fábrica	-10.7151
▁habit	-10.7154
▁bolsillo	-10.7157
▁dulce	-10.7158
▁claim	-10.7159
▁kid	-10.716
▁hable	-10.7176
▁songs	-10.7179
▁debía	-10.7205
eron	-10.7207
▁lenguas	-10.7242
▁preparar	-10.7243
quiera	-10.7257
ban	-10.726
▁honor	-10.7274
▁correos	-10.7281
▁principal	-10.7283
▁tight	-10.7286
▁visa	-10.7287
▁recommend	-10.729
▁comienzo	-10.729
▁discusión	-10.729
▁disparó	-10.729
▁fifteen	-10.729
▁jazz	-10.729
▁obra	-10.729
▁particular	-10.729
▁temperatura	-10.729
▁juice	-10.729
▁million	-10.729
▁above	-10.729
▁pez	-10.729
▁goodbye	-10.729
▁blew	-10.729
▁comfortable	-10.729
▁pity	-10.729
▁south	-10.7291
▁educación	-10.7291
▁basura	-10.7291
▁sushi	-10.7292
▁invitó	-10.7294
▁gate	-10.7295
▁acabado	-10.73
▁act	-10.73
▁asistir	-10.7302
it	-10.7304
▁últimamente	-10.7306
▁tendré	-10.7308
▁dumb	-10.731
▁prepared	-10.731
▁fixed	-10.7312
quiere	-10.7315
▁escaped	-10.7318
▁beso	-10.7326
▁querían	-10.7329
▁doce	-10.7346
▁add	-10.7365
▁conduce	-10.7398
▁sweet	-10.7398
▁season	-10.7404
▁letters	-10.7412
vivió	-10.7414
▁rumor	-10.7422
▁ayudara	-10.7444
cted	-10.7454
ness	-10.7486
▁pelea	-10.7502
▁dejara	-10.751
bbed	-10.7528
▁cruzar	-10.7533
▁accustom	-10.7534
▁appointment	-10.7534
▁hablé	-10.7534
▁llueva	-10.7534
▁request	-10.7534
▁levanté	-10.7534
▁argue	-10.7534
▁distancia	-10.7534
▁tongue	-10.7534
▁factory	-10.7534
▁encontramos	-10.7534
▁excited	-10.7535
▁anyway	-10.7535
▁arriba	-10.7536
▁drugs	-10.7536
▁felicidad	-10.7537
▁happiness	-10.7537
▁confused	-10.7539
▁burned	-10.7542
▁brave	-10.7544
▁trap	-10.7544
▁distance	-10.7546
w	-10.7547
▁armas	-10.7558
hap	-10.7566
▁americans	-10.7573
ese	-10.76
▁aquellos	-10.7602
▁espere	-10.7602
▁mountains	-10.7604
ga	-10.7608
▁traj	-10.7626
▁preocupa	-10.7629
▁oranges	-10.7637
▁harto	-10.7644
▁muñeca	-10.7647
▁earthquake	-10.7649
▁stone	-10.7651
▁vecino	-10.7652
▁teníamos	-10.7655
▁mo	-10.7656
gged	-10.7663
▁tastes	-10.7674
▁lleve	-10.7676
▁hacemos	-10.7682
▁condition	-10.7689
arse	-10.7699
▁programa	-10.77
ido	-10.77
tuvieron	-10.7713
▁fingers	-10.7731
▁pinta	-10.7732
▁regresar	-10.7733
yo	-10.7734
▁llamas	-10.7741
▁fingi	-10.7746
▁planea	-10.7748
▁tenían	-10.7769
▁distinguir	-10.7771
▁intend	-10.7772
▁paga	-10.7777
▁allergi	-10.778
▁enorme	-10.7781
▁jugador	-10.7782
▁attempt	-10.7784
▁maestro	-10.7784
▁supermarket	-10.7784
▁supermercado	-10.7784
▁temperature	-10.7784
▁llamé	-10.7784
▁gratis	-10.7784
▁esquina	-10.7784
▁bathroom	-10.7784
▁gordo	-10.7784
▁illness	-10.7784
▁ése	-10.7784
▁llámame	-10.7785
▁diré	-10.7786
▁levantarse	-10.7788
▁increíble	-10.7788
▁describe	-10.779
▁jumped	-10.7792
▁bomb	-10.7796
▁llegamos	-10.7798
▁hablante	-10.78
rse	-10.7805
▁vender	-10.7812
▁lights	-10.7825
▁cola	-10.7837
pareció	-10.7843
▁g	-10.7851
▁hojas	-10.7859
▁culpar	-10.7863
las	-10.7864
▁acaso	-10.7883
▁calls	-10.7896
▁mentiroso	-10.79
▁caballero	-10.7902
▁suitcase	-10.7907
▁partes	-10.7929
▁cuida	-10.7929
▁meaning	-10.794
▁copia	-10.7959
▁hi	-10.7979
▁losing	-10.7986
▁u	-10.7992
▁descubri	-10.8001
va	-10.8006
ándose	-10.8012
▁pretende	-10.8017
▁obey	-10.8027
▁escribí	-10.803
▁area	-10.8037
▁absoluto	-10.804
▁adentro	-10.804
▁ajedrez	-10.804
▁avergonzado	-10.804
▁bebida	-10.804
▁cuello	-10.804
▁excellent	-10.804
▁studies	-10.804
▁naked	-10.804
▁lazy	-10.804
▁gentleman	-10.804
▁teoría	-10.804
▁bolso	-10.804
▁email	-10.8041
▁intenté	-10.8041
▁chess	-10.8041
▁someday	-10.8042
▁recibido	-10.8042
▁preparando	-10.8042
▁discovered	-10.8043
▁esposo	-10.8043
▁mañanas	-10.8045
▁preguntarle	-10.8045
▁apuesto	-10.8049
man	-10.8054
▁loud	-10.8057
▁climate	-10.8062
▁limpio	-10.8062
▁mail	-10.8062
▁pond	-10.8065
▁saberlo	-10.8069
▁pleased	-10.8075
▁vemos	-10.8082
▁contado	-10.8085
ped	-10.8089
▁descansar	-10.809
▁mt	-10.8091
▁apagar	-10.8094
▁detalles	-10.8094
▁vete	-10.8115
▁hearing	-10.8141
miento	-10.8142
están	-10.8159
▁pistola	-10.8164
▁costumbre	-10.8165
▁mirada	-10.8166
▁cuidadoso	-10.8168
▁fuerza	-10.817
▁hole	-10.817
▁metro	-10.8176
▁fondo	-10.818
▁runs	-10.8204
▁molesta	-10.8211
▁andando	-10.8211
time	-10.8227
▁despertar	-10.8235
▁imagin	-10.8259
▁guard	-10.8259
prendió	-10.8262
▁reserva	-10.8266
iste	-10.8268
▁cross	-10.8274
▁climb	-10.8281
seando	-10.8286
nte	-10.8289
▁reach	-10.8291
▁hogar	-10.8296
▁pull	-10.8296
▁valiente	-10.83
▁moving	-10.8303
▁nosotras	-10.8303
▁patience	-10.8303
▁proposal	-10.8303
▁resemble	-10.8303
▁examination	-10.8303
▁handsome	-10.8303
▁permission	-10.8303
▁sospechoso	-10.8303
▁naive	-10.8303
▁menú	-10.8304
▁theory	-10.8304
▁pedido	-10.8304
▁salary	-10.8304
▁awful	-10.8304
▁cubierta	-10.8304
▁anillo	-10.8305
enza	-10.8306
▁cute	-10.8309
▁stealing	-10.831
▁dieron	-10.8311
▁prevented	-10.8311
▁llegaste	-10.8312
▁rome	-10.8313
▁suggested	-10.8313
▁bajar	-10.8314
▁clearly	-10.8316
▁llegaron	-10.8324
▁record	-10.8325
▁teaching	-10.8327
▁socks	-10.833
▁verduras	-10.833
▁pre	-10.833
▁sleepy	-10.8333
▁montar	-10.8339
▁band	-10.8339
▁dejaré	-10.8343
▁solved	-10.8345
▁urgente	-10.8345
▁drogas	-10.8351
▁mayores	-10.8353
▁friendly	-10.8357
▁profesores	-10.8363
▁alcanzar	-10.8367
▁vol	-10.8368
viste	-10.8386
▁casados	-10.8388
▁matters	-10.8401
▁ski	-10.8408
▁naranjas	-10.8422
▁banda	-10.843
▁desea	-10.8434
▁terremoto	-10.8438
▁vacía	-10.844
▁diría	-10.8441
▁cousin	-10.8441
▁fotografía	-10.8442
▁skirt	-10.8442
▁holiday	-10.8442
▁belong	-10.8443
▁vecinos	-10.8444
▁dura	-10.8456
▁farm	-10.8458
▁apart	-10.8472
▁sh	-10.848
▁arrest	-10.8484
▁ganado	-10.8496
h	-10.8497
▁necesitar	-10.8507
▁meal	-10.851
▁oh	-10.8511
▁sonar	-10.8522
▁urgent	-10.8531
▁posibilidad	-10.8567
▁silent	-10.8571
▁carretera	-10.8574
▁durmió	-10.8574
▁nariz	-10.8574
▁población	-10.8574
▁responsible	-10.8574
▁sistema	-10.8574
▁twelve	-10.8574
▁refrigerator	-10.8574
▁jail	-10.8574
▁impidió	-10.8574
▁pareja	-10.8574
▁sueldo	-10.8574
▁orgullosa	-10.8574
▁respeto	-10.8574
▁clever	-10.8574
▁vistazo	-10.8574
▁profundo	-10.8574
▁equivocada	-10.8574
▁confianza	-10.8574
▁cartera	-10.8575
▁grass	-10.8576
▁upset	-10.8576
▁envió	-10.8576
▁due	-10.8578
▁abandoned	-10.8579
▁skiing	-10.8583
▁kick	-10.8584
▁texto	-10.8585
▁imagine	-10.8591
▁deaf	-10.8595
▁difficulty	-10.86
▁estuviste	-10.861
▁papas	-10.8621
▁trusted	-10.8627
▁pieces	-10.8627
▁duró	-10.8628
▁coge	-10.863
▁adopt	-10.8645
filled	-10.8646
remos	-10.8648
▁noon	-10.866
ity	-10.8664
▁verg	-10.8668
▁estrellas	-10.8699
▁ears	-10.8704
▁ear	-10.8705
▁artículo	-10.8713
▁atrapado	-10.8718
▁bomba	-10.8724
▁poema	-10.8731
▁computadora	-10.8731
▁cabo	-10.8734
ry	-10.8735
▁turno	-10.8738
▁golpe	-10.8754
▁spends	-10.8765
▁costs	-10.8793
,"	-10.8816
▁dry	-10.8842
▁smells	-10.8843
▁reír	-10.8844
▁match	-10.8845
▁slow	-10.8848
▁bright	-10.8849
▁amount	-10.8851
▁emergency	-10.8851
▁empresa	-10.8851
▁estómago	-10.8851
▁responsable	-10.8851
▁system	-10.8851
▁tímido	-10.8851
▁drove	-10.8851
▁remedio	-10.8851
▁hubiese	-10.8851
▁dying	-10.8851
▁bottom	-10.8852
▁esquiar	-10.8852
▁ipad	-10.8852
▁agreement	-10.8852
▁preferido	-10.8853
▁neck	-10.8853
▁potatoes	-10.8854
▁agradecido	-10.8854
▁trago	-10.8854
▁completo	-10.8854
▁saludable	-10.8857
▁popula	-10.8859
▁ciento	-10.8861
▁bang	-10.8867
▁cantando	-10.8867
▁teaches	-10.8868
▁quedado	-10.8869
▁attended	-10.8875
▁calma	-10.8877
▁esperamos	-10.8879
▁kinds	-10.8882
▁levantar	-10.8883
▁dale	-10.8884
▁requiere	-10.8914
▁depends	-10.8926
este	-10.8932
▁tickets	-10.8936
▁rare	-10.8945
▁visita	-10.8989
▁vengas	-10.899
▁poem	-10.8991
▁lasted	-10.8992
▁cuadro	-10.8997
▁dormitorio	-10.8998
▁viejos	-10.9
▁objetivo	-10.9001
▁page	-10.9005
▁estrella	-10.9006
▁plato	-10.9006
▁sport	-10.9006
▁huevo	-10.9007
▁luce	-10.901
▁bite	-10.9027
▁hated	-10.9032
▁artist	-10.9034
▁debí	-10.9052
▁hagan	-10.9063
▁dormí	-10.9103
▁admiti	-10.9104
▁tomé	-10.9114
▁permite	-10.9119
▁creí	-10.9122
▁hechos	-10.9123
so	-10.9126
tengo	-10.9128
▁compra	-10.913
▁necesidad	-10.913
▁slight	-10.9133
▁cincuenta	-10.9137
▁disculpe	-10.9137
▁energy	-10.9137
▁improbable	-10.9137
▁lloró	-10.9137
▁mantequilla	-10.9137
▁neighborhood	-10.9137
▁plenty	-10.9137
▁stories	-10.9137
▁amistad	-10.9137
▁cabello	-10.9137
▁inútil	-10.9137
▁musician	-10.9137
▁esperó	-10.9137
▁market	-10.9137
▁opportunity	-10.9137
▁nurse	-10.9137
▁convencido	-10.9137
▁ground	-10.9137
▁convenció	-10.9137
▁winning	-10.9137
▁matrimonio	-10.9137
▁ejemplo	-10.9138
▁huge	-10.914
▁definite	-10.9146
▁querer	-10.9148
▁crossed	-10.915
▁listos	-10.9155
▁flying	-10.9158
▁sonido	-10.9159
▁bebió	-10.9161
▁weak	-10.9161
▁leyó	-10.9167
▁regalos	-10.9169
▁classes	-10.9174
▁probar	-10.9174
▁saltó	-10.9179
▁llen	-10.9187
▁loca	-10.9187
▁acordar	-10.9188
▁alarma	-10.9214
▁prepare	-10.9216
io	-10.9218
▁caer	-10.923
▁miembros	-10.9232
▁rog	-10.9271
▁autos	-10.9276
▁cab	-10.9286
▁motivo	-10.9292
▁bienvenido	-10.9295
▁scientist	-10.9296
▁acepta	-10.9299
▁esfuerzo	-10.9299
▁photo	-10.9299
▁naranja	-10.93
▁egg	-10.9301
▁neighbors	-10.9301
▁rose	-10.9304
▁buying	-10.9304
▁malas	-10.9304
▁detail	-10.9313
ir	-10.932
▁mover	-10.9328
▁abra	-10.9333
▁tomando	-10.9337
▁woods	-10.9348
▁divide	-10.9357
▁noches	-10.9363
ook	-10.9366
▁stars	-10.937
▁proteger	-10.9396
▁diferentes	-10.9411
▁complete	-10.9413
▁salí	-10.9422
▁wise	-10.9427
▁sharp	-10.9429
▁education	-10.943
▁rehus	-10.9431
▁puntual	-10.9431
safortunadamente	-10.9431
▁airplane	-10.9431
▁confío	-10.9431
▁conversation	-10.9431
▁españa	-10.9431
▁falda	-10.9431
▁pantalones	-10.9431
▁pool	-10.9431
▁smiling	-10.9431
▁puzzle	-10.9431
▁sofa	-10.9431
▁subway	-10.9431
▁center	-10.9431
▁example	-10.9431
▁castillo	-10.9431
▁fifty	-10.9431
▁easier	-10.9431
▁spain	-10.9431
▁cantidad	-10.9432
▁thirsty	-10.9432
▁prohibido	-10.9432
▁puse	-10.9433
▁louder	-10.9433
▁asustado	-10.9433
▁castle	-10.9433
▁pagó	-10.9434
▁stronger	-10.9436
▁llovió	-10.9436
▁habido	-10.9442
bió	-10.9442
▁article	-10.9447
▁hill	-10.9448
▁ignored	-10.9449
▁attacked	-10.945
▁millas	-10.9458
▁novelas	-10.9462
mi	-10.9463
▁drug	-10.9464
▁siga	-10.9465
▁llevas	-10.9465
▁require	-10.9467
tendremos	-10.9469
▁visité	-10.9469
▁invitar	-10.947
▁express	-10.9474
▁complain	-10.9477
▁doll	-10.949
▁forest	-10.9493
▁jugo	-10.9509
▁sta	-10.9511
▁entra	-10.9523
▁tarda	-10.9525
▁escritor	-10.9529
▁hablaba	-10.9558
aré	-10.9561
▁coma	-10.9565
▁asegurar	-10.9571
▁results	-10.9584
▁nor	-10.9585
▁pasatiempo	-10.9591
▁ingenuo	-10.9592
▁informe	-10.9593
▁intention	-10.9597
▁afortunado	-10.9598
▁ésa	-10.9598
▁servicio	-10.9598
▁harías	-10.96
▁estúpida	-10.96
▁estadounidense	-10.9603
▁uses	-10.9604
▁venta	-10.9625
▁sundays	-10.9664
▁roma	-10.9664
red	-10.9666
▁suya	-10.9674
tenés	-10.9686
▁press	-10.9706
▁ap	-10.9708
▁modern	-10.9711
▁persuade	-10.9719
▁suffer	-10.9724
▁main	-10.9725
▁sandwich	-10.9728
reció	-10.9732
virtió	-10.9733
▁curious	-10.9734
▁elevator	-10.9734
▁energía	-10.9734
▁equipaje	-10.9734
▁huyó	-10.9734
▁ocean	-10.9734
▁paquete	-10.9734
▁rechazó	-10.9734
▁relación	-10.9734
▁round	-10.9734
▁violence	-10.9734
▁área	-10.9734
▁eleven	-10.9734
▁violencia	-10.9734
▁pollo	-10.9734
▁libertad	-10.9734
▁committed	-10.9734
▁ambas	-10.9735
▁héroe	-10.9735
▁granja	-10.9736
▁bench	-10.9736
▁gritó	-10.9736
▁tallest	-10.9736
▁manager	-10.9737
▁empezado	-10.9737
▁querido	-10.974
▁mathematics	-10.9741
▁generally	-10.9741
▁robar	-10.9741
▁abandonó	-10.9741
▁caballos	-10.9742
▁escuchado	-10.9742
▁smaller	-10.9744
▁significado	-10.9744
▁passengers	-10.9745
▁veamos	-10.9745
▁survived	-10.9745
▁beside	-10.9749
▁tratado	-10.975
▁escriba	-10.975
▁guests	-10.9757
▁conocemos	-10.9761
▁artista	-10.9763
▁fuma	-10.9764
▁quedamos	-10.9774
▁horses	-10.9775
▁disfruta	-10.9777
▁using	-10.9781
▁starting	-10.9809
▁hablamos	-10.9812
▁sur	-10.9818
▁montañas	-10.9819
▁respuestas	-10.9828
▁members	-10.9831
▁teachers	-10.9843
▁imaginar	-10.9853
▁contract	-10.9856
▁seré	-10.9858
▁viva	-10.9863
▁estadounidenses	-10.9868
ero	-10.9884
▁pensado	-10.989
▁riesgo	-10.9893
▁termina	-10.9902
▁conferencia	-10.9906
▁abierto	-10.9909
▁hombro	-10.9911
▁cierta	-10.9913
▁orange	-10.9916
▁escalera	-10.9916
▁invitado	-10.9917
ón	-10.9919
▁resultados	-10.993
▁ayudarle	-10.9931
▁dará	-10.9962
▁herir	-10.9977
▁comen	-10.9986
▁quedara	-10.9986
▁draw	-10.9992
realmente	-10.9998
▁plant	-11
z	-11.0013
je	-11.0014
▁push	-11.0023
▁fortuna	-11.0037
▁ignore	-11.0038
ic	-11.0044
vés	-11.0046
▁brown	-11.0047
▁calcetines	-11.0047
▁conversación	-11.0047
▁illegal	-11.0047
▁lincoln	-11.0047
▁maravilloso	-11.0047
▁marriage	-11.0047
▁october	-11.0047
▁octubre	-11.0047
▁pudimos	-11.0047
▁website	-11.0047
▁conoció	-11.0047
▁esperé	-11.0047
▁garage	-11.0047
▁kidding	-11.0047
▁couch	-11.0047
▁captain	-11.0047
▁washington	-11.0047
▁weird	-11.0047
▁trece	-11.0047
▁traducir	-11.0047
▁traté	-11.0047
▁curso	-11.0047
▁tough	-11.0047
▁saliera	-11.0047
▁credit	-11.0048
▁elección	-11.0048
▁poniendo	-11.0048
▁muchacha	-11.0048
▁saliendo	-11.0048
▁scolded	-11.0049
▁preocupada	-11.0049
▁perfectamente	-11.0049
▁supuesto	-11.0049
▁betrayed	-11.005
▁shelf	-11.005
▁trabajadores	-11.005
▁third	-11.0052
▁h	-11.0053
▁seguido	-11.0054
▁levantarme	-11.0054
▁original	-11.0055
▁esperemos	-11.0055
▁ayudarnos	-11.0056
▁perfectly	-11.0059
▁complained	-11.006
▁verdadera	-11.0062
▁hello	-11.0063
podés	-11.0064
▁camina	-11.0065
▁russian	-11.0068
▁nuevamente	-11.0071
ish	-11.0077
▁workers	-11.0092
▁mess	-11.0094
dor	-11.0113
émonos	-11.0152
▁quitar	-11.0157
▁díga	-11.0167
▁deber	-11.0182
▁gira	-11.0199
sabe	-11.0199
▁piensan	-11.0223
▁músico	-11.0226
▁emergencia	-11.0226
▁cuánta	-11.0232
▁billete	-11.0233
▁disease	-11.0234
ri	-11.0234
▁viniera	-11.0235
▁tend	-11.0238
▁pelear	-11.0254
▁answers	-11.0259
▁extranjeros	-11.0269
▁cercano	-11.0276
▁hero	-11.0286
nse	-11.0291
▁shoulder	-11.0292
▁sepas	-11.0305
▁changes	-11.0313
▁pesca	-11.0328
▁supone	-11.0343
▁mentir	-11.0346
▁suggest	-11.0347
▁local	-11.0349
▁refuse	-11.0354
▁grab	-11.0356
▁repeat	-11.0357
▁vende	-11.0358
▁mention	-11.036
he	-11.0362
▁quick	-11.0365
▁licencia	-11.0367
▁brasil	-11.0369
▁aceptó	-11.0369
▁advantage	-11.0369
▁agujero	-11.0369
▁capitán	-11.0369
▁evil	-11.0369
▁exchange	-11.0369
▁mundial	-11.0369
▁plata	-11.0369
▁colina	-11.0369
▁millones	-11.0369
▁conversar	-11.0369
▁podido	-11.0369
▁regresó	-11.0369
▁breve	-11.0369
▁podamos	-11.037
▁departamento	-11.037
▁lentamente	-11.037
▁pregúntale	-11.037
▁author	-11.037
▁vinieron	-11.037
▁bald	-11.037
▁embarrassed	-11.037
▁gracioso	-11.037
▁claramente	-11.0371
▁pequeños	-11.0371
▁tráeme	-11.0371
▁gotten	-11.0371
▁everywhere	-11.0372
▁regaló	-11.0372
▁pale	-11.0372
▁salida	-11.0373
▁nearest	-11.0373
▁sort	-11.0373
▁esconder	-11.0373
▁tendría	-11.0374
▁confía	-11.0375
▁ascensor	-11.0377
▁board	-11.0377
▁repaired	-11.0381
▁iguales	-11.0384
▁pulled	-11.0384
▁houses	-11.0385
▁encontraste	-11.0385
▁dijera	-11.0396
▁borrowed	-11.0397
▁apologized	-11.04
▁fe	-11.0403
▁writer	-11.0409
▁iría	-11.0414
▁skin	-11.0417
▁sore	-11.0424
▁jug	-11.0425
▁ghosts	-11.0437
▁norte	-11.0444
▁toques	-11.0456
▁accidents	-11.0461
▁handle	-11.0463
▁disculpas	-11.0489
▁verle	-11.0515
mp	-11.0516
▁hurts	-11.0519
▁salga	-11.0525
mo	-11.0529
▁holidays	-11.0529
▁schedule	-11.0554
▁intento	-11.0561
▁boleto	-11.0566
▁vendría	-11.0567
▁olvidar	-11.0571
▁deportes	-11.0573
ión	-11.0578
▁co	-11.0615
▁compar	-11.0623
▁estarás	-11.0625
01	-11.0626
▁enemigos	-11.0649
though	-11.0654
estáis	-11.0665
▁experiment	-11.0673
piensas	-11.0675
▁adora	-11.0694
▁ilegal	-11.0696
▁débil	-11.0696
▁engine	-11.0696
pa	-11.0697
▁hop	-11.0699
▁ocurrir	-11.07
▁electric	-11.0702
▁anciana	-11.0703
▁apartamento	-11.0703
▁beauty	-11.0703
▁curiosidad	-11.0703
▁estupendo	-11.0703
▁otoño	-11.0703
▁possibility	-11.0703
▁retraso	-11.0703
▁toward	-11.0703
▁zoológico	-11.0703
▁creyó	-11.0703
▁suéter	-11.0703
▁dislike	-11.0703
▁childhood	-11.0703
▁enfermera	-11.0703
▁armario	-11.0703
▁toalla	-11.0703
▁foolish	-11.0703
▁consigo	-11.0703
▁wild	-11.0703
▁atrap	-11.0704
▁master	-11.0704
▁acusado	-11.0704
▁ocultando	-11.0704
▁supper	-11.0704
▁hunting	-11.0704
▁puesta	-11.0704
▁bebiendo	-11.0705
▁celoso	-11.0705
▁detesto	-11.0706
▁tocando	-11.0707
▁subir	-11.0707
▁contrato	-11.0708
▁useless	-11.0708
▁cre	-11.0709
▁dé	-11.0709
▁graduated	-11.0709
▁agotado	-11.071
▁ability	-11.071
▁vivimos	-11.0711
▁acabar	-11.0712
▁army	-11.0715
▁warned	-11.0715
▁apagó	-11.0717
▁progress	-11.0719
▁dirá	-11.0724
▁director	-11.0724
▁esperado	-11.0724
▁falling	-11.0727
▁quedaron	-11.0733
▁vernos	-11.0734
▁nubes	-11.0737
▁italian	-11.0742
▁traveling	-11.0746
▁salvar	-11.0746
▁escalar	-11.0751
▁badly	-11.0762
▁fantasmas	-11.0765
▁venía	-11.0768
▁enfadar	-11.0773
▁alimentar	-11.0788
▁odian	-11.079
▁besar	-11.0795
▁abandonar	-11.0797
costó	-11.0798
▁promet	-11.0799
▁plu	-11.0804
▁cuid	-11.0805
▁quedes	-11.081
▁paying	-11.0812
▁nose	-11.0818
▁echa	-11.0834
▁actuar	-11.0858
▁gasta	-11.0859
▁iron	-11.0869
▁llevan	-11.0899
▁despedido	-11.0907
tally	-11.091
▁burn	-11.091
ment	-11.091
▁vuelvas	-11.0914
▁cambia	-11.0928
▁nuevas	-11.0933
▁warn	-11.0941
▁na	-11.0948
▁form	-11.0957
▁program	-11.0961
▁hecha	-11.0969
▁hacerse	-11.0981
pongo	-11.0993
▁citizen	-11.1007
▁decía	-11.1008
▁olvide	-11.1018
▁apaga	-11.1024
▁repair	-11.1025
▁search	-11.1038
▁dis	-11.1039
▁consejos	-11.1041
▁11	-11.1046
▁acercó	-11.1048
▁brazil	-11.1048
▁cuestión	-11.1048
▁desperté	-11.1048
▁enseguida	-11.1048
▁escenario	-11.1048
▁fortune	-11.1048
▁genius	-11.1048
▁junio	-11.1048
▁mexico	-11.1048
▁mirror	-11.1048
▁razonable	-11.1048
▁silence	-11.1048
▁unhappy	-11.1048
▁grateful	-11.1048
▁soltero	-11.1048
▁value	-11.1048
▁velocidad	-11.1048
▁available	-11.1048
▁private	-11.1048
▁robbed	-11.1048
▁interés	-11.1048
▁sencillo	-11.1048
▁condiciones	-11.1048
▁amazing	-11.1048
▁definitivamente	-11.1048
▁espejo	-11.1048
▁aproximadamente	-11.1049
▁trato	-11.1049
▁ataque	-11.1049
▁colectivo	-11.1049
▁friendship	-11.105
▁pesado	-11.105
▁volviendo	-11.1051
▁estuvi	-11.1052
▁ciencia	-11.1053
▁intentarlo	-11.1053
▁greatest	-11.1053
▁comúnmente	-11.1055
▁piel	-11.1057
▁recoger	-11.1063
▁echo	-11.1064
▁appeared	-11.1066
▁deserted	-11.1068
▁cantó	-11.1068
▁practice	-11.107
un	-11.1073
▁impuestos	-11.1073
▁larger	-11.1074
▁aprendido	-11.1075
▁novels	-11.1075
▁queréis	-11.1076
▁amigas	-11.1079
éis	-11.1083
▁adonde	-11.1083
▁comprender	-11.1083
▁abrí	-11.1084
▁bello	-11.1085
▁gritar	-11.1085
▁clouds	-11.1087
▁sano	-11.109
ni	-11.109
▁cae	-11.1093
▁depressed	-11.1101
▁usando	-11.1125
▁nadando	-11.1126
▁gast	-11.1127
▁stamps	-11.1129
▁detuvo	-11.1133
▁mando	-11.1159
▁seguros	-11.116
▁solos	-11.1175
pusieron	-11.1182
▁presentes	-11.1183
▁marcha	-11.1183
▁mu	-11.1194
▁pro	-11.1197
▁reparar	-11.1202
▁details	-11.1205
▁primo	-11.1222
il	-11.1227
▁expert	-11.1256
▁accidentes	-11.1257
ita	-11.126
▁material	-11.126
▁enfadada	-11.1262
▁tranquilo	-11.1262
▁rosa	-11.1264
▁lindo	-11.1268
▁cookie	-11.1274
▁promesas	-11.129
▁canadienses	-11.1294
tió	-11.1296
▁disculpa	-11.1307
▁presta	-11.1311
▁robo	-11.1317
▁letra	-11.132
▁autor	-11.132
▁quedan	-11.1325
¿	-11.1352
what	-11.1356
▁goal	-11.1357
▁marca	-11.136
▁gives	-11.1363
▁chose	-11.1367
▁trabajaba	-11.1368
▁jump	-11.1383
▁señor	-11.1383
▁lies	-11.1388
▁prepar	-11.139
▁disturb	-11.1392
▁build	-11.1395
▁automóvil	-11.1398
▁dificultad	-11.1398
▁sudden	-11.14
▁polite	-11.1403
▁thin	-11.1404
▁alcalde	-11.1405
▁arguing	-11.1405
▁basketball	-11.1405
▁crédito	-11.1405
▁failure	-11.1405
▁lecture	-11.1405
▁llamo	-11.1405
▁ocurrido	-11.1405
▁océano	-11.1405
▁polvo	-11.1405
▁ridículo	-11.1405
▁yokohama	-11.1405
▁bucket	-11.1405
▁pleasant	-11.1405
▁towel	-11.1405
▁collar	-11.1405
▁facebook	-11.1405
▁buried	-11.1405
▁tiró	-11.1405
▁belleza	-11.1405
▁esperanto	-11.1405
▁changing	-11.1405
▁sugirió	-11.1405
▁trapped	-11.1405
▁suicidó	-11.1405
▁exhausted	-11.1405
▁moda	-11.1406
▁guapo	-11.1406
▁aprendiste	-11.1406
▁disappeared	-11.1407
▁despise	-11.1407
▁birth	-11.1407
▁vosotras	-11.1407
▁pintó	-11.1408
▁nuts	-11.1409
▁pagado	-11.141
▁fallen	-11.141
▁tail	-11.1411
▁breathe	-11.1412
▁cometió	-11.1412
▁invented	-11.1413
▁viniste	-11.1415
▁emocionado	-11.1416
▁ausente	-11.1417
▁divorced	-11.1418
▁treated	-11.1425
▁pasajeros	-11.1427
▁lower	-11.1428
▁compre	-11.1429
▁computers	-11.1431
▁succeeded	-11.1434
eme	-11.1439
▁disfrut	-11.1444
▁sospecha	-11.1448
pe	-11.1461
▁cleaning	-11.1463
▁descubrir	-11.1465
▁irnos	-11.1467
▁cooked	-11.1473
▁verla	-11.1477
▁starts	-11.1482
vo	-11.1488
▁sand	-11.149
▁visiting	-11.1492
▁quedaba	-11.1497
▁productos	-11.1507
cha	-11.1508
▁quejas	-11.1544
▁arms	-11.1551
▁mismos	-11.1555
,000	-11.1558
▁photos	-11.1568
▁ayudará	-11.158
▁dejo	-11.1609
esta	-11.161
▁interest	-11.1616
zó	-11.1617
▁relationship	-11.1632
▁termine	-11.1634
▁criminal	-11.1634
▁antiguo	-11.164
▁hábito	-11.164
▁saving	-11.1642
▁cigarette	-11.1642
▁soldier	-11.1644
▁soldado	-11.1646
ied	-11.1648
▁herida	-11.165
▁admitir	-11.1659
becoming	-11.1684
▁tareas	-11.169
▁ta	-11.1705
▁cap	-11.1726
debería	-11.1731
▁guardar	-11.1738
▁civil	-11.1742
▁escondi	-11.1758
▁dentist	-11.1758
ers	-11.1761
▁greet	-11.1764
▁steal	-11.1766
▁lift	-11.1767
▁social	-11.1767
▁baile	-11.1767
▁largas	-11.177
▁suspicious	-11.177
▁votar	-11.1775
▁stomach	-11.1775
▁alfombra	-11.1775
▁apoyo	-11.1775
▁aprecio	-11.1775
▁cierre	-11.1775
▁cinturón	-11.1775
▁delicioso	-11.1775
▁impresión	-11.1775
▁laptop	-11.1775
▁lástima	-11.1775
▁professor	-11.1775
▁provide	-11.1775
▁rush	-11.1775
▁complicated	-11.1775
▁picasso	-11.1775
▁ruso	-11.1775
▁méxico	-11.1775
▁violín	-11.1775
▁sensible	-11.1775
▁battle	-11.1775
▁mintió	-11.1775
▁batalla	-11.1775
▁invitation	-11.1775
▁invitación	-11.1775
▁peel	-11.1776
▁atrasado	-11.1776
▁entendido	-11.1776
▁decepcionado	-11.1776
▁molesto	-11.1776
▁gerente	-11.1776
▁recientemente	-11.1776
▁tocó	-11.1776
▁rota	-11.1777
▁baffled	-11.1777
▁salvó	-11.1777
▁salario	-11.1777
▁sonreír	-11.1777
▁conseguí	-11.1778
▁adiós	-11.1778
▁despierta	-11.1778
▁science	-11.1778
▁election	-11.1778
▁vieron	-11.1778
▁impressed	-11.1779
tra	-11.1779
▁vienen	-11.1779
▁cual	-11.178
▁capaces	-11.178
▁sentarme	-11.178
▁cercana	-11.178
▁hire	-11.1782
▁com	-11.1783
▁ruined	-11.1784
ion	-11.1784
▁considerado	-11.1785
▁intentado	-11.1785
▁visitado	-11.1787
▁jam	-11.1788
▁pushed	-11.179
▁acting	-11.1791
▁imagen	-11.1792
▁diste	-11.1794
▁ponerse	-11.1799
ábamos	-11.1808
▁drives	-11.1811
▁devolver	-11.182
▁base	-11.1821
▁venden	-11.1823
▁signed	-11.1829
▁meter	-11.1829
ried	-11.1835
▁text	-11.1836
▁snowing	-11.1838
ías	-11.1847
!"	-11.1848
▁inter	-11.1849
▁chat	-11.1873
▁carrie	-11.1873
▁estuvieron	-11.1874
imos	-11.1878
▁buses	-11.1886
▁compañeros	-11.1889
▁maravillosa	-11.1893
▁miel	-11.1897
▁continuar	-11.19
▁plantas	-11.1913
▁vienes	-11.192
▁march	-11.1956
▁argument	-11.1967
▁force	-11.1971
▁predict	-11.1986
▁dulces	-11.1986
▁ayudé	-11.2004
▁volví	-11.2012
▁detener	-11.202
▁rode	-11.2021
▁aspecto	-11.2022
▁hopes	-11.2026
▁altura	-11.2026
▁extranjera	-11.2026
▁effort	-11.2027
▁chiste	-11.2027
▁alguno	-11.2044
▁adapt	-11.2048
▁actu	-11.2069
sí	-11.2105
law	-11.2112
▁contest	-11.2114
estoy	-11.2118
▁sabían	-11.2136
▁renunciar	-11.2142
▁improve	-11.2144
▁crash	-11.2147
▁shock	-11.2147
▁gain	-11.2148
▁defend	-11.2158
▁audience	-11.216
▁caluroso	-11.216
▁despertó	-11.216
▁economy	-11.216
▁economía	-11.216
▁efectivo	-11.216
▁enemies	-11.216
▁genio	-11.216
▁insane	-11.216
▁itself	-11.216
▁mochila	-11.216
▁opina	-11.216
▁razones	-11.216
▁strict	-11.216
▁thirteen	-11.216
▁colgó	-11.216
▁empecé	-11.216
▁ugly	-11.216
▁acusó	-11.216
▁cima	-11.216
▁solicitud	-11.216
▁coward	-11.216
▁excusa	-11.216
▁hawaii	-11.216
▁rieron	-11.216
▁diary	-11.216
▁importancia	-11.2161
▁ayúdame	-11.2161
▁kilómetros	-11.2161
▁entré	-11.2161
▁nation	-11.2161
▁frightened	-11.2162
▁kindness	-11.2162
▁anger	-11.2163
▁concentrate	-11.2164
▁shake	-11.2165
▁punished	-11.2165
▁cheated	-11.2166
▁north	-11.2167
▁sentada	-11.2168
▁bebo	-11.2171
▁deeply	-11.2172
▁capable	-11.2172
▁dentista	-11.2177
▁encendió	-11.2178
▁spite	-11.2179
▁trataba	-11.218
▁cansados	-11.218
▁supo	-11.218
▁ordenó	-11.2187
▁lean	-11.2188
teniendo	-11.2189
▁llegaría	-11.219
▁trate	-11.2191
▁expresar	-11.2193
▁asia	-11.2193
▁saca	-11.2193
▁kissing	-11.2197
▁esperaré	-11.2204
▁musical	-11.2204
ical	-11.2216
▁voted	-11.2217
▁alumnos	-11.222
▁miré	-11.2229
▁names	-11.2249
▁wondering	-11.225
▁quedando	-11.2252
▁burl	-11.2252
▁acuerdas	-11.2262
▁viaja	-11.2292
▁ibas	-11.2298
▁comparti	-11.2305
▁viaj	-11.2312
▁casas	-11.2322
▁daba	-11.2329
▁leader	-11.2333
▁arena	-11.2333
▁esfuerzos	-11.2336
ones	-11.234
▁po	-11.2347
▁vase	-11.2368
▁muertos	-11.2389
▁pe	-11.2393
▁pañuelo	-11.2416
▁vacío	-11.2417
▁apariencia	-11.2421
▁impaciente	-11.2421
▁field	-11.2423
▁cerdo	-11.2425
▁hambriento	-11.2425
▁talento	-11.2426
▁pidie	-11.2427
▁miembro	-11.2428
▁regla	-11.2429
▁empleado	-11.2435
▁seguí	-11.2439
▁lesson	-11.2441
tienen	-11.2466
ur	-11.2472
▁saltar	-11.2473
▁mistaken	-11.2488
ponía	-11.2508
▁understands	-11.2508
quieren	-11.2512
▁charla	-11.2513
▁talent	-11.2537
▁niñas	-11.2542
▁advance	-11.2544
▁metal	-11.2547
▁cover	-11.2551
▁receive	-11.2552
▁sándwich	-11.2553
▁nevar	-11.2559
▁scene	-11.2559
▁accompan	-11.256
▁baloncesto	-11.256
▁compromiso	-11.256
▁current	-11.256
▁desierto	-11.256
▁grosero	-11.256
▁piscina	-11.256
▁ridiculous	-11.256
▁tránsito	-11.256
▁íbamos	-11.256
▁bound	-11.256
▁conduciendo	-11.256
▁desapareció	-11.256
▁escucho	-11.256
▁june	-11.256
▁mercado	-11.256
▁notebook	-11.256
▁okay	-11.256
▁reuniones	-11.256
▁formulario	-11.256
▁gorda	-11.256
▁campana	-11.256
▁fecha	-11.256
▁vendré	-11.256
▁adoro	-11.256
▁noisy	-11.256
▁villa	-11.256
▁candy	-11.2561
▁celular	-11.2561
▁móvil	-11.2561
▁apply	-11.2561
▁aumento	-11.2562
▁arrestado	-11.2562
▁seguida	-11.2562
▁fracaso	-11.2562
▁outfit	-11.2562
▁elected	-11.2562
▁annoying	-11.2563
▁cuyo	-11.2563
▁levantado	-11.2567
▁vago	-11.2568
▁usualmente	-11.2569
▁successful	-11.2569
▁inclinó	-11.257
▁hablemos	-11.2571
▁gained	-11.2572
▁haremos	-11.2574
▁formas	-11.2575
▁escena	-11.2575
▁obedecer	-11.2577
▁contain	-11.258
▁persuaded	-11.2581
▁ringing	-11.2581
▁vain	-11.2582
▁hall	-11.2592
éramos	-11.2599
▁aparte	-11.2604
▁vend	-11.2604
ation	-11.2605
▁diera	-11.2606
▁dejaría	-11.2611
▁empez	-11.2611
▁brazos	-11.2625
▁produce	-11.2626
▁inform	-11.2651
▁despedir	-11.2652
▁guarda	-11.2656
▁trenes	-11.2657
▁usado	-11.2663
▁teme	-11.2684
▁seguía	-11.2686
▁compartir	-11.2694
ma	-11.2705
▁cancel	-11.2712
▁tap	-11.2713
▁bala	-11.2718
▁empeza	-11.2733
▁presentar	-11.2735
▁olvida	-11.2744
▁poems	-11.2749
▁plants	-11.2751
za	-11.2754
▁mejorar	-11.276
▁pill	-11.2766
▁tomará	-11.2772
ante	-11.2774
ive	-11.2776
▁inteligentes	-11.2777
▁trabaj	-11.2779
▁mantiene	-11.2787
▁wins	-11.2801
ty	-11.2813
▁acostumbrar	-11.2827
▁document	-11.2832
▁medida	-11.2837
▁cheek	-11.284
▁francesa	-11.2841
▁pi	-11.2842
▁member	-11.2845
▁fines	-11.2861
▁orders	-11.2866
▁suceder	-11.2876
▁nombres	-11.2895
▁equal	-11.2896
looking	-11.2928
▁trabajado	-11.2933
ces	-11.294
▁sirve	-11.2942
▁model	-11.2952
▁señal	-11.2955
▁interrupt	-11.296
▁divorce	-11.2961
▁firme	-11.2961
▁survive	-11.2962
▁altos	-11.2963
▁prevent	-11.2964
▁gather	-11.2967
▁obvious	-11.2972
▁costa	-11.2975
▁mantén	-11.2976
▁anxious	-11.2976
▁basket	-11.2976
▁bienvenida	-11.2976
▁cuarenta	-11.2976
▁envelope	-11.2976
▁grapes	-11.2976
▁kilometers	-11.2976
▁nature	-11.2976
▁tamaño	-11.2976
▁turkey	-11.2976
▁pepper	-11.2976
▁switch	-11.2976
▁juez	-11.2976
▁calvo	-11.2976
▁enojada	-11.2976
▁naturaleza	-11.2977
▁violin	-11.2977
▁acostumbrada	-11.2977
▁fought	-11.2977
▁cubierto	-11.2977
▁seriamente	-11.2978
▁exciting	-11.2978
▁salieron	-11.2978
▁comprendo	-11.2978
▁vengo	-11.2978
▁quejando	-11.2978
▁carga	-11.2979
▁forgetful	-11.2979
▁volando	-11.2979
▁coser	-11.2979
▁harta	-11.298
▁déjalo	-11.298
▁peleando	-11.298
▁obviously	-11.2982
▁escondido	-11.2982
▁spilled	-11.2983
▁confundido	-11.2984
▁cocinando	-11.2988
▁regular	-11.299
▁parecer	-11.299
▁juzgar	-11.2991
▁casarte	-11.3002
▁growing	-11.3003
▁closer	-11.3005
▁llamaste	-11.3007
▁encontraron	-11.301
▁murdered	-11.3012
▁notas	-11.3014
▁llevaré	-11.3018
ista	-11.3025
▁ayudaría	-11.3034
▁comprarlo	-11.3035
▁llamaba	-11.3035
▁miraba	-11.3036
▁oírte	-11.3041
▁planeta	-11.3043
▁quieto	-11.3048
▁lava	-11.3061
▁cleaned	-11.3063
▁sp	-11.3072
▁dust	-11.3079
▁cerrados	-11.3099
▁queja	-11.3101
▁convertir	-11.3105
▁knowing	-11.3106
dicó	-11.3113
adas	-11.3123
▁arregl	-11.3152
▁comas	-11.3165
dos	-11.3181
▁poemas	-11.3182
▁fotografías	-11.3185
probó	-11.3194
si	-11.32
▁remembered	-11.3209
▁strangers	-11.322
arme	-11.3225
▁firmar	-11.3252
▁desnudo	-11.3268
▁negra	-11.3268
▁leo	-11.3269
▁alternativa	-11.327
▁opera	-11.3272
▁sales	-11.3273
▁antigua	-11.3273
▁ciudadano	-11.3278
▁científico	-11.3278
▁corte	-11.3279
▁compañero	-11.3279
▁hoja	-11.328
▁regard	-11.3282
▁experto	-11.3282
biste	-11.3286
▁creen	-11.329
▁asuntos	-11.3312
▁action	-11.3312
▁flu	-11.3325
▁contratar	-11.3331
▁asegúr	-11.3348
▁incident	-11.3354
capaz	-11.3363
▁apunt	-11.3366
▁tied	-11.3373
▁muere	-11.3378
▁walks	-11.3391
▁pressure	-11.3394
▁manage	-11.3396
▁crecí	-11.3397
▁bowl	-11.3401
▁copa	-11.3403
▁nivel	-11.3403
▁amar	-11.3404
▁witness	-11.3404
▁física	-11.3408
ue	-11.3408
po	-11.3409
▁sed	-11.341
▁adjust	-11.3411
▁cajón	-11.3411
▁dessert	-11.3411
▁efecto	-11.3411
▁embargo	-11.3411
▁enciende	-11.3411
▁evidence	-11.3411
▁garganta	-11.3411
▁helicopter	-11.3411
▁inocencia	-11.3411
▁percent	-11.3411
▁strength	-11.3411
▁throat	-11.3411
▁actress	-11.3411
▁bullet	-11.3411
▁crisis	-11.3411
▁emocionante	-11.3411
▁obtuvo	-11.3411
▁thick	-11.3411
▁hierro	-11.3411
▁average	-11.3411
▁instituto	-11.3411
▁screen	-11.3411
▁occurred	-11.3411
▁ratón	-11.3411
▁suggestion	-11.3411
▁comimos	-11.3411
▁complicado	-11.3411
▁habitual	-11.3411
▁electrónico	-11.3412
▁conference	-11.3412
▁newspapers	-11.3412
▁nap	-11.3412
▁soporto	-11.3412
▁adelantado	-11.3412
▁elecciones	-11.3412
▁brillante	-11.3412
▁siéntate	-11.3413
▁raw	-11.3413
▁patio	-11.3413
▁deshacer	-11.3413
▁adorable	-11.3413
▁major	-11.3413
▁reply	-11.3413
▁pesada	-11.3413
▁cuente	-11.3414
▁costará	-11.3415
▁muchísimo	-11.3416
▁órdenes	-11.3417
▁generalmente	-11.3417
▁torre	-11.3418
▁pants	-11.3418
▁construyó	-11.3418
▁removed	-11.3419
▁vendi	-11.342
▁jeans	-11.342
▁causó	-11.3421
▁pica	-11.3421
▁wounded	-11.3422
▁mantente	-11.3422
▁llamando	-11.3423
▁recuerdas	-11.3424
▁concerned	-11.3424
llón	-11.3428
▁azules	-11.3432
ran	-11.3435
▁staring	-11.3437
▁visitors	-11.3438
▁importantes	-11.344
▁lleg	-11.3443
▁llamarme	-11.3443
▁alma	-11.3444
▁experimento	-11.3446
▁postre	-11.3447
▁bebido	-11.3455
▁utilizar	-11.3455
▁león	-11.346
▁fork	-11.3477
▁legal	-11.3479
▁danced	-11.3483
▁touched	-11.3487
▁sleeps	-11.3491
▁perfecta	-11.3495
▁twins	-11.3509
▁watches	-11.3514
▁suma	-11.3516
▁however	-11.3517
▁insult	-11.3521
▁ciudades	-11.3526
▁lately	-11.3533
ito	-11.3535
▁earns	-11.3539
▁indica	-11.3542
▁helps	-11.3542
ja	-11.3544
▁promises	-11.3572
▁primos	-11.3577
▁creas	-11.3596
▁iban	-11.36
▁controlar	-11.3621
▁oblig	-11.3622
▁dirigi	-11.3628
▁cousins	-11.363
▁resolvi	-11.3665
▁bromas	-11.3702
▁shoot	-11.3709
▁concern	-11.371
▁closet	-11.3715
ventó	-11.3719
▁service	-11.3722
▁asesinado	-11.3725
▁testigo	-11.3726
▁lion	-11.3727
▁pierde	-11.3727
▁direction	-11.373
▁juguete	-11.3732
▁cerrado	-11.3736
▁shoe	-11.3736
▁limpi	-11.3738
▁placer	-11.3741
▁rojas	-11.3745
das	-11.3754
▁pasan	-11.3755
▁reasons	-11.3756
▁alimenta	-11.3759
▁planet	-11.3762
▁pasto	-11.3764
▁dudas	-11.3775
sumo	-11.3787
▁earn	-11.3787
▁terror	-11.3805
ci	-11.3806
tuve	-11.3806
▁ricos	-11.381
▁existe	-11.3827
▁pr	-11.3829
▁facts	-11.383
ous	-11.3838
necesitas	-11.3839
▁directo	-11.3841
▁desert	-11.3844
▁supe	-11.3848
▁disappoint	-11.3853
▁speed	-11.3855
▁cell	-11.3856
▁import	-11.3861
▁salad	-11.3862
▁oficial	-11.3863
▁attract	-11.3865
▁brit	-11.3866
▁achieve	-11.3866
▁ansioso	-11.3866
▁apellido	-11.3866
▁conocimos	-11.3866
▁contrario	-11.3866
▁diamond	-11.3866
▁ejército	-11.3866
▁false	-11.3866
▁gloves	-11.3866
▁ladder	-11.3866
▁líder	-11.3866
▁method	-11.3866
▁nonsense	-11.3866
▁register	-11.3866
▁reputation	-11.3866
▁shakespeare	-11.3866
▁whale	-11.3866
▁estudió	-11.3866
▁furioso	-11.3866
▁deposit	-11.3866
▁guantes	-11.3866
▁sunny	-11.3866
▁fijamente	-11.3866
▁adecuado	-11.3866
▁refrigerador	-11.3866
▁privado	-11.3866
▁stake	-11.3866
▁explosion	-11.3866
▁nevando	-11.3866
▁priest	-11.3866
▁bribe	-11.3866
▁poker	-11.3866
▁electricity	-11.3866
▁lightning	-11.3866
▁discussion	-11.3866
▁enamorada	-11.3866
▁suave	-11.3866
▁preferida	-11.3866
▁valla	-11.3866
▁export	-11.3866
▁obsequio	-11.3866
▁impression	-11.3866
▁nara	-11.3866
▁command	-11.3866
▁construir	-11.3867
▁mandó	-11.3867
▁punta	-11.3867
▁condujo	-11.3867
▁cuidadosamente	-11.3867
▁puppy	-11.3867
▁tiende	-11.3867
▁averg	-11.3867
▁olor	-11.3867
▁preocuparse	-11.3867
▁prohibited	-11.3868
▁escapó	-11.3868
▁drawer	-11.3868
▁cage	-11.3869
▁posición	-11.3869
▁creció	-11.387
▁mostraré	-11.387
▁perdone	-11.387
▁barking	-11.3871
▁destroyed	-11.3872
▁terminé	-11.3872
hace	-11.3873
▁elige	-11.3873
▁self	-11.3873
▁granted	-11.3873
▁llegues	-11.3873
▁dificultades	-11.3874
▁alice	-11.3876
▁attractive	-11.3876
▁talented	-11.388
▁moral	-11.388
▁deny	-11.388
▁canceled	-11.3881
▁uvas	-11.3882
▁crossing	-11.3883
▁hola	-11.3884
▁viera	-11.3892
▁modelo	-11.3896
▁fan	-11.3897
▁options	-11.39
▁volvería	-11.3903
▁encontrarás	-11.3905
▁peanuts	-11.3906
▁pasaron	-11.3908
▁hacerle	-11.3908
▁llevará	-11.391
▁orejas	-11.3912
▁charged	-11.3913
▁degrees	-11.3919
▁martes	-11.3925
▁ayudado	-11.3929
▁estaremos	-11.3934
▁snowed	-11.3963
▁coins	-11.3969
▁humanos	-11.3985
▁documentos	-11.3996
▁total	-11.4012
▁pasara	-11.4017
▁producto	-11.4017
▁cigarettes	-11.4031
▁seats	-11.4032
▁perdonar	-11.4033
tar	-11.4042
yon	-11.4042
gue	-11.4081
▁entregar	-11.4086
▁cares	-11.4087
▁presents	-11.4092
▁vano	-11.4093
▁funcionar	-11.4101
▁w	-11.4114
▁mías	-11.4119
▁participar	-11.4125
▁trabajan	-11.4135
▁upon	-11.4149
tener	-11.4154
habla	-11.4159
▁ocupa	-11.4166
▁loan	-11.4168
▁aprende	-11.4175
▁estén	-11.4178
▁juga	-11.4182
▁actual	-11.4197
▁handkerchief	-11.4198
▁file	-11.4201
▁fila	-11.4202
▁cosecha	-11.4203
▁regrese	-11.4203
▁plate	-11.4206
▁debt	-11.4208
▁amarilla	-11.4209
▁employee	-11.4211
▁prisoner	-11.4212
▁documento	-11.4219
▁aquello	-11.4226
▁sentar	-11.4228
▁firm	-11.4249
▁historias	-11.4252
▁atrapar	-11.4255
yes	-11.4282
▁jobs	-11.4284
▁sings	-11.4284
▁ahorrar	-11.4286
ina	-11.4296
▁jugaba	-11.4303
▁poet	-11.4309
ized	-11.4318
▁double	-11.4324
▁harás	-11.4326
▁acostar	-11.4326
▁admire	-11.4331
▁spread	-11.4331
▁spell	-11.4332
▁coches	-11.4334
▁flat	-11.4336
▁venid	-11.4336
▁disfraz	-11.4341
▁práctica	-11.4342
▁acceso	-11.4342
▁actriz	-11.4342
▁agradezco	-11.4342
▁aliento	-11.4342
▁ambulance	-11.4342
▁ambulancia	-11.4342
▁applie	-11.4342
▁baggage	-11.4342
▁concurso	-11.4342
▁enfadó	-11.4342
▁ensalada	-11.4342
▁falso	-11.4342
▁families	-11.4342
▁impatient	-11.4342
▁inevitable	-11.4342
▁levanto	-11.4342
▁mordió	-11.4342
▁método	-11.4342
▁opciones	-11.4342
▁petróleo	-11.4342
▁politics	-11.4342
▁pregnant	-11.4342
▁responsabilidad	-11.4342
▁rifle	-11.4342
▁tuesday	-11.4342
▁typhoon	-11.4342
▁uñas	-11.4342
▁vecindario	-11.4342
▁voluntad	-11.4342
▁vuelvo	-11.4342
▁whistle	-11.4342
▁absence	-11.4342
▁asesino	-11.4342
▁stage	-11.4342
▁task	-11.4342
▁tesoro	-11.4342
▁temper	-11.4342
▁hidden	-11.4342
▁tower	-11.4342
▁ease	-11.4342
▁perdimos	-11.4342
▁muriendo	-11.4342
▁package	-11.4342
▁obtener	-11.4342
▁begun	-11.4342
▁involucrado	-11.4342
▁pídele	-11.4342
▁calidad	-11.4342
▁pago	-11.4342
▁lavadora	-11.4342
▁frecuentemente	-11.4342
▁electricidad	-11.4342
▁apparently	-11.4342
▁perdieron	-11.4342
▁burst	-11.4343
▁bigge	-11.4343
▁properly	-11.4343
▁continúa	-11.4343
▁obviamente	-11.4343
▁muéstrame	-11.4344
▁embarazada	-11.4344
▁estalló	-11.4344
▁bordo	-11.4344
▁fluently	-11.4345
▁botas	-11.4345
▁matado	-11.4346
▁apretó	-11.4347
▁comiste	-11.4348
▁murderer	-11.4348
▁personalmente	-11.4349
▁issue	-11.435
▁olvidaré	-11.435
▁echado	-11.435
▁confessed	-11.4351
▁reasonable	-11.4351
▁baked	-11.4351
▁delayed	-11.4352
claró	-11.4353
▁preparing	-11.4355
▁cero	-11.4355
▁honesty	-11.4355
▁siesta	-11.4357
▁enseñarme	-11.4357
▁traduj	-11.4358
▁quietly	-11.4359
▁classmates	-11.4365
▁incidente	-11.4373
▁sabés	-11.439
▁forty	-11.439
▁scare	-11.4395
▁repar	-11.4403
▁grados	-11.4404
▁seca	-11.4409
▁causes	-11.4421
▁llegara	-11.4433
▁meters	-11.4434
▁dreaming	-11.4438
▁nowhere	-11.4439
▁juegos	-11.4449
▁monedas	-11.445
▁doubts	-11.4452
▁lea	-11.4453
sal	-11.4454
▁super	-11.4455
▁comentarios	-11.4457
▁wishes	-11.4458
▁weapons	-11.4463
▁presentó	-11.4472
▁llevara	-11.4473
▁mires	-11.4473
▁comp	-11.4489
▁alérgic	-11.4491
▁particip	-11.4501
ug	-11.4504
▁tantos	-11.4538
▁deer	-11.455
▁resulta	-11.4556
▁roses	-11.4563
▁reporte	-11.4574
▁busqué	-11.4583
▁metros	-11.459
▁bat	-11.4594
▁closes	-11.4602
▁alcanz	-11.4613
ated	-11.4617
▁quede	-11.4619
▁cargar	-11.4626
▁páginas	-11.4642
▁amenaza	-11.4646
vis	-11.4688
rme	-11.4688
▁wound	-11.4689
▁presente	-11.4695
▁ríe	-11.4696
▁sorprende	-11.4697
▁adult	-11.4698
▁detective	-11.4698
▁dueño	-11.4701
▁photograph	-11.4701
▁disponible	-11.4704
▁parecido	-11.4704
▁medicamento	-11.4705
▁gallina	-11.4705
▁sordo	-11.4705
▁mejilla	-11.4706
▁deuda	-11.4706
▁cabra	-11.4706
▁dama	-11.4708
▁político	-11.4708
▁acuerda	-11.471
▁callado	-11.4723
▁trains	-11.4726
ncia	-11.4737
▁depend	-11.4743
▁resist	-11.4744
▁africa	-11.4748
▁canadians	-11.4755
▁pása	-11.4766
▁vives	-11.4773
▁soñ	-11.4775
▁ocurre	-11.4785
▁americano	-11.4785
▁maneja	-11.4793
year	-11.4797
▁shame	-11.4798
cu	-11.4798
▁miente	-11.4802
▁vea	-11.4812
▁sentados	-11.4817
▁mostrar	-11.4823
▁fashion	-11.4826
▁frame	-11.4828
▁flood	-11.4829
▁demanda	-11.4833
▁nuclear	-11.4834
ísimo	-11.4838
▁fox	-11.4839
▁lujo	-11.4839
▁materna	-11.484
▁pour	-11.4841
▁capacidad	-11.4841
▁obvio	-11.4841
▁burglar	-11.4842
▁court	-11.4842
▁access	-11.4842
▁amabilidad	-11.4842
▁april	-11.4842
▁arriving	-11.4842
▁atentamente	-11.4842
▁ceiling	-11.4842
▁committee	-11.4842
▁césped	-11.4842
▁dieciocho	-11.4842
▁embajada	-11.4842
▁embassy	-11.4842
▁engaged	-11.4842
▁evidencia	-11.4842
▁explosión	-11.4842
▁francisco	-11.4842
▁greek	-11.4842
▁harsh	-11.4842
▁hawái	-11.4842
▁heavily	-11.4842
▁impresionado	-11.4842
▁infancia	-11.4842
▁insurance	-11.4842
▁malentendido	-11.4842
▁nowadays	-11.4842
▁ocasión	-11.4842
▁outstanding	-11.4842
▁pleasure	-11.4842
▁political	-11.4842
▁presión	-11.4842
▁reputación	-11.4842
▁rostro	-11.4842
▁sugerencia	-11.4842
▁sunglasses	-11.4842
▁terrific	-11.4842
▁además	-11.4842
▁motorcycle	-11.4842
▁fridge	-11.4842
▁jaula	-11.4842
▁jogging	-11.4842
▁importance	-11.4842
▁lucía	-11.4842
▁sabia	-11.4842
▁blackboard	-11.4842
▁perdiendo	-11.4842
▁cities	-11.4842
▁boots	-11.4842
▁investigación	-11.4842
▁mentido	-11.4842
▁muero	-11.4842
▁juan	-11.4842
▁imagination	-11.4842
▁claus	-11.4842
▁carpet	-11.4843
▁imaginación	-11.4843
▁almohada	-11.4843
▁estanque	-11.4843
▁autoridad	-11.4843
▁bailando	-11.4843
▁exhausto	-11.4843
▁stove	-11.4843
▁babbling	-11.4843
▁decidieron	-11.4843
▁distinguish	-11.4843
▁objeto	-11.4843
▁frankly	-11.4843
▁picante	-11.4844
▁tinta	-11.4844
▁stock	-11.4844
▁quality	-11.4844
▁muerta	-11.4844
▁elegido	-11.4844
▁interesada	-11.4845
▁bitter	-11.4845
▁entregó	-11.4845
▁professional	-11.4845
▁restless	-11.4845
▁obligado	-11.4845
▁valuable	-11.4846
▁tejado	-11.4846
▁humo	-11.4846
▁cuéntame	-11.4846
▁taxes	-11.4846
▁sentarse	-11.4847
▁smarter	-11.4848
▁abril	-11.4848
▁ignoró	-11.4849
▁sewing	-11.4849
▁lección	-11.4849
▁collecting	-11.485
▁treasure	-11.485
▁propios	-11.4851
▁sour	-11.4851
▁sweating	-11.4851
▁empezamos	-11.4852
▁shorter	-11.4854
▁separated	-11.4854
▁esquí	-11.4854
▁served	-11.4854
▁personally	-11.4856
▁insisted	-11.4856
ible	-11.486
▁oldest	-11.4861
▁hired	-11.4863
▁entraron	-11.4864
▁pobres	-11.4864
▁podré	-11.4866
▁intended	-11.4867
▁casarme	-11.4868
▁adopted	-11.4869
▁korean	-11.487
▁magic	-11.4872
▁planted	-11.4872
▁planta	-11.4873
▁solucionar	-11.4873
estabas	-11.4875
▁rented	-11.4876
▁nerviosa	-11.4878
▁volumen	-11.488
▁closely	-11.4883
▁places	-11.4884
▁pasaba	-11.4884
▁contarte	-11.4886
▁colores	-11.4887
▁existen	-11.489
▁mancha	-11.489
▁periódicos	-11.4891
▁imagined	-11.4894
▁busca	-11.4895
▁solar	-11.4896
▁grades	-11.49
▁j	-11.4902
▁ca	-11.4904
▁che	-11.4912
▁turistas	-11.4914
▁bananas	-11.4921
▁reunir	-11.4924
▁tales	-11.4929
▁cazar	-11.493
▁dejarlo	-11.4932
▁alimentos	-11.4936
▁comía	-11.4938
▁encargar	-11.4939
▁derechos	-11.4939
ller	-11.494
▁vacas	-11.4944
▁meta	-11.4948
pero	-11.4952
▁ink	-11.4965
▁amas	-11.4968
ear	-11.4971
▁veas	-11.4997
cer	-11.5008
side	-11.5012
▁aula	-11.5013
▁efforts	-11.5018
▁talla	-11.5019
▁rosas	-11.5033
▁extrañar	-11.5057
j	-11.5057
▁aside	-11.5058
age	-11.5097
▁l	-11.5104
▁debate	-11.5118
darnos	-11.5125
▁ignorar	-11.5126
one	-11.5129
▁claims	-11.513
áramos	-11.513
▁prest	-11.5131
ida	-11.5151
▁luchar	-11.5163
▁consult	-11.5169
▁demand	-11.517
▁unusual	-11.5176
▁calles	-11.5184
▁knee	-11.5194
▁prefiere	-11.5196
▁ruin	-11.5203
▁behave	-11.5211
illa	-11.5212
▁desayuna	-11.5219
▁amarillo	-11.5225
▁hu	-11.5227
▁appearance	-11.5227
▁zorro	-11.5228
▁flag	-11.5229
▁pida	-11.5232
▁piloto	-11.5233
▁manda	-11.5234
▁tourist	-11.5235
▁weapon	-11.5235
▁pide	-11.5237
▁lento	-11.5238
▁vuestros	-11.5243
cient	-11.5244
▁squeeze	-11.5247
▁pop	-11.5255
▁humano	-11.5258
▁players	-11.526
▁necesite	-11.5262
▁scar	-11.5278
ig	-11.5282
▁cómodo	-11.5303
▁protest	-11.5304
▁faith	-11.5307
▁corrí	-11.5311
chi	-11.5314
lu	-11.5317
▁llegas	-11.5318
▁oppose	-11.5318
▁fuese	-11.5322
recuerdas	-11.5323
▁extraños	-11.5326
▁volume	-11.5328
▁tipos	-11.5331
▁rate	-11.5334
▁decent	-11.5337
▁cough	-11.5345
▁recogi	-11.5346
▁mat	-11.5352
▁aim	-11.5352
▁approve	-11.5353
▁oso	-11.5353
ud	-11.5354
▁sweat	-11.5357
▁pack	-11.5357
▁blow	-11.5358
▁profesional	-11.536
▁angel	-11.5361
▁lastimar	-11.5362
▁unexpected	-11.5363
▁hug	-11.5364
▁enséñame	-11.5366
▁occasion	-11.5368
▁adicto	-11.5368
▁apoyó	-11.5368
▁comité	-11.5368
▁confesó	-11.5368
▁coraje	-11.5368
▁cuaderno	-11.5368
▁deliciosa	-11.5368
▁encender	-11.5368
▁engañó	-11.5368
▁entrance	-11.5368
▁espectáculo	-11.5368
▁estudié	-11.5368
▁festival	-11.5368
▁hoax	-11.5368
▁instructions	-11.5368
▁izquierdo	-11.5368
▁ketchup	-11.5368
▁knowledge	-11.5368
▁maestra	-11.5368
▁paliza	-11.5368
▁pimienta	-11.5368
▁pizarra	-11.5368
▁retrasó	-11.5368
▁rough	-11.5368
▁secundaria	-11.5368
▁sensitive	-11.5368
▁sociedad	-11.5368
▁society	-11.5368
▁sombra	-11.5368
▁target	-11.5368
▁temporada	-11.5368
▁tifón	-11.5368
▁unfair	-11.5368
▁universe	-11.5368
▁universo	-11.5368
▁upstairs	-11.5368
▁vestida	-11.5368
▁época	-11.5368
▁ausencia	-11.5368
▁conceited	-11.5368
▁drew	-11.5368
▁pagué	-11.5368
▁policy	-11.5368
▁almorzando	-11.5368
▁egoísta	-11.5368
▁mystery	-11.5368
▁soft	-11.5368
▁swear	-11.5368
▁coincidence	-11.5368
▁competition	-11.5368
▁habitaciones	-11.5368
▁replace	-11.5368
▁selfish	-11.5368
▁scenery	-11.5368
▁silver	-11.5368
▁rio	-11.5368
▁presence	-11.5369
▁permitido	-11.5369
▁melodía	-11.5369
▁scratch	-11.5369
▁advirtió	-11.5369
▁comparto	-11.5369
▁reina	-11.5369
▁honestidad	-11.537
▁hundió	-11.537
▁level	-11.537
▁arrepiento	-11.537
▁salgo	-11.537
▁muro	-11.537
▁caminó	-11.537
▁pruebas	-11.5371
▁square	-11.5371
▁actualmente	-11.5371
▁respirar	-11.5371
▁cheaper	-11.5371
▁object	-11.5372
▁sonriendo	-11.5372
▁soul	-11.5372
▁instrucciones	-11.5372
▁partió	-11.5372
▁metido	-11.5373
▁arrojó	-11.5373
▁barba	-11.5373
▁suitable	-11.5374
▁progreso	-11.5374
▁dating	-11.5375
▁saqué	-11.5375
▁caminaba	-11.5375
▁product	-11.5376
▁treaty	-11.5377
▁bowed	-11.5377
▁oeste	-11.5378
▁mostrarte	-11.5378
▁rescued	-11.5378
▁shouted	-11.5379
▁fairly	-11.5379
▁miraron	-11.538
▁addict	-11.5382
▁despertador	-11.5383
▁framed	-11.5384
▁shocked	-11.5385
▁marchó	-11.5388
▁height	-11.5389
▁disparar	-11.5389
▁income	-11.5394
▁sigo	-11.5396
▁manners	-11.5401
endo	-11.5403
▁quarter	-11.5403
▁quejó	-11.5403
▁quemó	-11.5406
▁ayudando	-11.5408
▁herramientas	-11.5408
▁pagaré	-11.5409
nzó	-11.5416
▁mandar	-11.5419
▁fiar	-11.5426
▁serás	-11.5426
▁sellos	-11.5428
▁chosen	-11.5428
▁pesa	-11.5429
▁posee	-11.5435
▁rely	-11.5436
how	-11.5444
▁leerlo	-11.5451
▁acción	-11.5452
▁gemelos	-11.5452
▁preciosa	-11.5456
▁cows	-11.5459
▁terms	-11.5463
▁saludó	-11.5464
▁disfrutar	-11.5464
cated	-11.5467
▁conté	-11.5474
▁serpientes	-11.5474
▁snakes	-11.5474
▁normas	-11.5482
▁r	-11.5482
▁alcanza	-11.5483
▁lit	-11.5492
▁fate	-11.5492
▁parking	-11.5494
▁regalar	-11.5506
▁grown	-11.5506
▁permanecer	-11.5517
▁americanos	-11.5529
▁sonando	-11.5531
▁científicos	-11.5532
king	-11.5533
▁lados	-11.5574
▁lucha	-11.5577
▁canal	-11.5592
ico	-11.5596
▁cor	-11.5625
▁gustado	-11.5633
elo	-11.5661
▁considera	-11.5679
ho	-11.568
▁pasear	-11.5685
▁ga	-11.5698
▁fueras	-11.5702
▁sábados	-11.571
▁mata	-11.5714
v	-11.5718
▁recibi	-11.5721
▁entradas	-11.5725
▁piense	-11.5748
▁fi	-11.5752
cantaría	-11.576
▁tune	-11.5761
▁tru	-11.5761
▁pilot	-11.577
qui	-11.5778
▁helicóptero	-11.578
▁religion	-11.578
▁dim	-11.5781
▁cobarde	-11.5783
▁pluma	-11.5783
▁bandera	-11.5783
▁cuento	-11.5786
▁guardia	-11.5786
▁custom	-11.5787
▁curtain	-11.5788
▁rodilla	-11.5789
▁encuentre	-11.579
▁cigarrillo	-11.579
▁comentario	-11.5791
▁stamp	-11.5792
▁oscura	-11.5792
▁edi	-11.5794
▁papers	-11.5805
▁éstas	-11.5829
▁budge	-11.5833
▁resultar	-11.5851
▁ke	-11.5852
▁arruin	-11.5865
▁agradeci	-11.5868
ellos	-11.587
mail	-11.5874
▁botellas	-11.5874
▁invent	-11.5877
▁estacion	-11.5879
▁cocin	-11.5882
▁odiaba	-11.5883
▁busc	-11.5885
esa	-11.5886
▁bottles	-11.5897
▁pray	-11.5898
▁apunta	-11.5901
leaned	-11.5906
▁lent	-11.5907
▁increase	-11.5908
▁poison	-11.5911
▁malos	-11.5917
▁triunfar	-11.5918
▁brand	-11.592
▁gentil	-11.592
▁servir	-11.592
▁prince	-11.5922
▁central	-11.5923
▁automobile	-11.5924
▁biblia	-11.5924
▁california	-11.5924
▁cottage	-11.5924
▁despedida	-11.5924
▁diecisiete	-11.5924
▁garbage	-11.5924
▁hockey	-11.5924
▁inconsciente	-11.5924
▁innocence	-11.5924
▁juicio	-11.5924
▁limít	-11.5924
▁martillo	-11.5924
▁mouse	-11.5924
▁ocurra	-11.5924
▁oigo	-11.5924
▁oxygen	-11.5924
▁oxígeno	-11.5924
▁promotion	-11.5924
▁química	-11.5924
▁regreso	-11.5924
▁resort	-11.5924
▁rusia	-11.5924
▁stubborn	-11.5924
▁tabaco	-11.5924
▁unreliable	-11.5924
▁seventeen	-11.5924
▁suceda	-11.5924
▁apology	-11.5924
▁flour	-11.5924
▁descubierto	-11.5924
▁sheep	-11.5924
▁cálido	-11.5924
▁deprimido	-11.5924
▁merecía	-11.5924
▁mutuamente	-11.5924
▁trunk	-11.5924
▁reducir	-11.5924
▁kobe	-11.5924
▁discutiendo	-11.5924
▁brief	-11.5924
▁periodista	-11.5924
▁hugged	-11.5924
▁educado	-11.5924
▁tinto	-11.5924
▁batería	-11.5924
▁cigarro	-11.5924
▁estantería	-11.5924
▁wide	-11.5924
▁robando	-11.5924
▁juguemos	-11.5924
▁observando	-11.5924
▁dormida	-11.5925
▁safety	-11.5925
▁sugiero	-11.5925
▁spade	-11.5925
▁drowning	-11.5925
▁contraseña	-11.5925
▁password	-11.5925
▁revés	-11.5926
▁bible	-11.5926
▁partida	-11.5926
▁gane	-11.5926
▁fortunately	-11.5926
▁caído	-11.5927
▁soap	-11.5927
▁threatened	-11.5927
▁released	-11.5928
▁incómodo	-11.5928
▁abandonado	-11.5928
▁saque	-11.5928
▁áfrica	-11.5928
▁optimista	-11.5928
▁pretendía	-11.5929
▁pido	-11.5929
▁disguised	-11.593
▁afortunadamente	-11.5932
▁arrogante	-11.5934
▁santa	-11.5935
▁salgamos	-11.5935
▁decile	-11.5935
▁siguieron	-11.5936
▁everest	-11.5938
▁jugadores	-11.5939
▁burning	-11.594
▁approved	-11.594
▁estacionar	-11.5941
▁fuertes	-11.5941
▁riendo	-11.5942
▁suffering	-11.5942
dical	-11.5942
▁naturales	-11.5944
construido	-11.5944
▁computadores	-11.5946
▁senté	-11.5957
▁sabor	-11.5957
cogí	-11.5957
▁decente	-11.5958
▁kilos	-11.5958
▁moderna	-11.5959
▁cómoda	-11.5961
▁poeta	-11.5962
▁aparcar	-11.5964
ch	-11.5965
▁feo	-11.5965
▁evento	-11.5967
▁informed	-11.5969
▁yendo	-11.5974
▁respond	-11.5977
▁trabajamos	-11.598
▁celebrate	-11.5986
▁supplies	-11.5989
▁incorrecta	-11.5992
▁decirlo	-11.6005
oso	-11.6005
▁memorize	-11.6006
▁considerar	-11.6007
eza	-11.6009
▁heater	-11.6016
▁discuti	-11.6035
▁conejos	-11.6036
eligió	-11.6052
▁clientes	-11.6052
▁juegan	-11.6053
ros	-11.6054
▁painful	-11.6054
▁products	-11.6065
▁tourists	-11.6067
▁necesites	-11.6067
ín	-11.607
▁decepcionar	-11.6073
▁chances	-11.6074
tado	-11.6094
▁dependen	-11.6099
pidieron	-11.6105
▁divorci	-11.6107
▁extranjeras	-11.6121
▁chistes	-11.6122
▁imp	-11.6136
ance	-11.6144
iz	-11.6145
ng	-11.6168
▁ba	-11.617
▁abuse	-11.6216
▁consume	-11.6232
old	-11.6233
▁cultura	-11.6237
▁revis	-11.6262
▁hoped	-11.6264
▁aprobar	-11.6286
▁muchachos	-11.6286
▁acabas	-11.6293
▁owner	-11.63
▁permit	-11.6301
▁stepp	-11.6303
▁mentiras	-11.6304
▁encuentras	-11.6309
where	-11.633
▁scream	-11.6341
▁coin	-11.6348
▁damage	-11.6355
▁colors	-11.636
▁misterio	-11.6364
▁culture	-11.6364
▁divertida	-11.6364
▁reservation	-11.6366
vamos	-11.6367
▁clara	-11.6369
▁familias	-11.637
▁wheel	-11.637
▁sujeto	-11.637
▁belt	-11.6373
▁moneda	-11.6379
▁cliente	-11.638
▁lu	-11.6385
▁twin	-11.6389
▁dollar	-11.6389
▁sucio	-11.6395
▁italiano	-11.6398
▁permaneci	-11.64
▁fuente	-11.6401
▁roll	-11.6411
su	-11.6417
▁resign	-11.6425
▁design	-11.6433
▁suicidar	-11.6434
ará	-11.6452
▁puñ	-11.6461
queréis	-11.6463
tenéis	-11.6463
▁oye	-11.6465
▁entendí	-11.647
five	-11.6472
▁russia	-11.6472
▁gifts	-11.6484
um	-11.6495
▁delay	-11.6501
▁thorough	-11.6507
▁wealth	-11.6508
▁shout	-11.6509
▁rápida	-11.6509
▁affect	-11.6512
▁aburrida	-11.6512
▁actitud	-11.6512
▁anteojos	-11.6512
▁attitude	-11.6512
▁autumn	-11.6512
▁auténtico	-11.6512
▁cedió	-11.6512
▁challenge	-11.6512
▁conjunto	-11.6512
▁desastre	-11.6512
▁desierta	-11.6512
▁downstairs	-11.6512
▁eighteen	-11.6512
▁estilo	-11.6512
▁financial	-11.6512
▁funcionó	-11.6512
▁gasolina	-11.6512
▁halloween	-11.6512
▁horario	-11.6512
▁journalist	-11.6512
▁junk	-11.6512
▁lastimó	-11.6512
▁lápices	-11.6512
▁narrow	-11.6512
▁opposite	-11.6512
▁promedio	-11.6512
▁príncipe	-11.6512
▁repugnante	-11.6512
▁scissors	-11.6512
▁screw	-11.6512
▁simpático	-11.6512
▁statue	-11.6512
▁traicionó	-11.6512
▁trigger	-11.6512
▁honey	-11.6512
▁pálido	-11.6512
▁recién	-11.6512
▁sensación	-11.6512
▁flashlight	-11.6512
▁quíta	-11.6512
▁zona	-11.6512
▁falleció	-11.6512
▁parcial	-11.6512
▁slam	-11.6512
▁pillow	-11.6512
▁stomachache	-11.6512
▁empiece	-11.6512
▁atento	-11.6512
▁department	-11.6512
▁reduce	-11.6512
▁dozen	-11.6512
▁pozo	-11.6512
▁purse	-11.6512
▁sirvió	-11.6512
▁lavó	-11.6512
▁pipe	-11.6512
▁nearby	-11.6512
▁antig	-11.6512
▁further	-11.6512
▁authority	-11.6512
▁eyesight	-11.6512
▁tóma	-11.6512
▁soltera	-11.6513
▁remarkable	-11.6513
▁repentinamente	-11.6513
▁operation	-11.6513
▁harina	-11.6513
▁admiro	-11.6513
▁dibujo	-11.6513
▁acondicionado	-11.6514
▁row	-11.6514
▁rejected	-11.6514
▁hammer	-11.6514
▁soñando	-11.6514
▁informado	-11.6514
▁construcción	-11.6514
▁happier	-11.6514
▁bleeding	-11.6515
▁quejarse	-11.6515
▁atravesó	-11.6515
▁appetite	-11.6515
▁planned	-11.6516
▁lotería	-11.6517
▁ciertamente	-11.6517
▁continuó	-11.6517
▁actúa	-11.6517
▁boiling	-11.6519
▁tela	-11.6519
▁mostrarme	-11.6519
▁condición	-11.6519
▁proof	-11.652
▁defense	-11.652
▁explicarlo	-11.652
▁secó	-11.652
▁swam	-11.652
▁invitaron	-11.652
▁muestra	-11.6521
▁balde	-11.6522
▁desgracia	-11.6524
▁painter	-11.6524
▁screamed	-11.6524
▁cogido	-11.6526
▁logró	-11.6527
▁enseñaré	-11.6529
▁mataron	-11.6529
▁dominar	-11.653
▁sobrevivir	-11.653
▁busco	-11.6531
▁cave	-11.6531
▁cochera	-11.6532
▁pasaste	-11.6533
▁responde	-11.6534
▁logro	-11.6537
▁comparado	-11.6537
▁preguntarte	-11.6538
▁resistir	-11.654
▁asientos	-11.654
▁conocerte	-11.6542
▁gastos	-11.6544
▁participate	-11.6544
zco	-11.6544
▁insistió	-11.6545
▁tonta	-11.6545
▁lloverá	-11.6546
▁apetece	-11.6548
▁avoided	-11.6553
▁adivina	-11.6554
▁ponerme	-11.6558
▁crowded	-11.656
▁joy	-11.6561
▁officer	-11.6564
▁checked	-11.6568
▁labios	-11.6572
▁uniforme	-11.6575
▁tiro	-11.6576
▁estudias	-11.6577
▁barber	-11.6578
▁comete	-11.6583
aban	-11.6583
▁hijas	-11.6584
▁worrying	-11.6585
▁guns	-11.6588
▁breaking	-11.6591
▁nodded	-11.6591
▁completa	-11.6592
▁pasaría	-11.6593
▁assure	-11.66
▁daría	-11.6606
▁pasarme	-11.6614
▁cabe	-11.6617
voted	-11.6621
▁aman	-11.6637
▁adultos	-11.6641
▁tires	-11.6649
tiendo	-11.6661
▁encontrarte	-11.6662
▁amarillas	-11.668
▁sabías	-11.6682
▁osos	-11.6683
▁sienten	-11.6694
pueden	-11.6708
tir	-11.6712
▁lovely	-11.6712
tenemos	-11.6719
dando	-11.6721
▁prepara	-11.6738
▁superar	-11.6742
▁salgas	-11.6756
▁lead	-11.6766
▁encantador	-11.6767
▁pasas	-11.6773
eh	-11.6774
▁colecciona	-11.6782
▁molestar	-11.679
▁pages	-11.6796
▁aguantar	-11.6798
▁listens	-11.6803
▁meals	-11.682
▁logr	-11.6831
ismo	-11.6832
▁ocupar	-11.6834
▁understanding	-11.6839
▁alegre	-11.6854
▁bolsillos	-11.6855
▁west	-11.687
▁pockets	-11.6872
▁consigue	-11.6877
▁revistas	-11.688
▁cura	-11.6887
▁magazines	-11.6888
▁maletas	-11.6888
aciones	-11.6902
ras	-11.6904
▁norma	-11.6905
▁dare	-11.6907
vi	-11.6912
▁pencils	-11.6922
che	-11.6923
▁encantado	-11.6931
ula	-11.6941
▁cups	-11.6947
podé	-11.6958
▁realizar	-11.6966
▁lamenta	-11.6967
▁tire	-11.6972
▁asustar	-11.6981
▁confuso	-11.6995
▁advis	-11.6998
zo	-11.6999
▁brain	-11.7
▁cortina	-11.7003
▁cheque	-11.7004
▁ghost	-11.7005
▁detalle	-11.7006
▁gu	-11.7009
▁cu	-11.7014
▁adulto	-11.7014
▁doctors	-11.702
▁violent	-11.702
▁mono	-11.7028
▁mission	-11.7033
▁detenido	-11.7035
▁ayudes	-11.7062
cierto	-11.7062
▁bebí	-11.7063
vy	-11.7066
tando	-11.7081
sumí	-11.7081
▁owes	-11.7083
sabés	-11.7087
tendré	-11.7088
▁evit	-11.7103
ustedes	-11.7107
▁collect	-11.7114
▁separate	-11.7118
▁hesitate	-11.7121
▁origin	-11.7123
▁faint	-11.7125
▁confess	-11.7125
▁borde	-11.7125
▁superior	-11.7129
▁tenedor	-11.7129
▁comercial	-11.713
▁habilidad	-11.713
▁ángel	-11.713
▁convenient	-11.7132
▁spli	-11.7135
▁profunda	-11.7136
▁spot	-11.7137
▁tranquila	-11.7137
▁conscious	-11.7137
tacó	-11.7137
▁excepcional	-11.7137
▁necesaria	-11.7137
▁aceite	-11.7137
▁acepto	-11.7137
▁album	-11.7137
▁apetito	-11.7137
▁application	-11.7137
▁cafetería	-11.7137
▁cambié	-11.7137
▁ciega	-11.7137
▁circumstances	-11.7137
▁clásica	-11.7137
▁complex	-11.7137
▁conocieron	-11.7137
▁conseguido	-11.7137
▁decírselo	-11.7137
▁desmayó	-11.7137
▁determine	-11.7137
▁disculpó	-11.7137
▁eléctrica	-11.7137
▁gatillo	-11.7137
▁grifo	-11.7137
▁hunch	-11.7137
▁húmedo	-11.7137
▁independiente	-11.7137
▁international	-11.7137
▁intérprete	-11.7137
▁january	-11.7137
▁ladrones	-11.7137
▁lectura	-11.7137
▁ligero	-11.7137
▁linterna	-11.7137
▁luggage	-11.7137
▁mobile	-11.7137
▁mínimo	-11.7137
▁narita	-11.7137
▁pajamas	-11.7137
▁patinar	-11.7137
▁physics	-11.7137
▁pánico	-11.7137
▁religión	-11.7137
▁research	-11.7137
▁responsibility	-11.7137
▁rising	-11.7137
▁rompecabezas	-11.7137
▁siguiendo	-11.7137
▁translation	-11.7137
▁veloz	-11.7137
▁vencido	-11.7137
▁virus	-11.7137
▁vídeo	-11.7137
▁corriente	-11.7137
▁desaparecido	-11.7137
▁romantic	-11.7137
▁amusing	-11.7137
▁disaster	-11.7137
▁typical	-11.7137
▁apague	-11.7137
▁assistant	-11.7137
▁vegetales	-11.7137
▁acciones	-11.7137
▁estatua	-11.7137
▁coincidencia	-11.7137
▁desperate	-11.7137
▁pink	-11.7137
▁láv	-11.7137
▁resuelto	-11.7137
▁cocinero	-11.7137
▁almorzamos	-11.7137
▁pintor	-11.7137
▁fog	-11.7137
▁aparentemente	-11.7137
▁datos	-11.7137
▁amazed	-11.7137
▁frog	-11.7137
▁communicate	-11.7137
sh	-11.7138
▁ebrio	-11.7138
▁crema	-11.7138
▁desocupado	-11.7138
▁secretary	-11.7138
▁poquito	-11.7138
▁comenzado	-11.7138
▁directamente	-11.7138
▁treatment	-11.7138
▁tratamiento	-11.7138
▁salimos	-11.7138
▁strike	-11.7138
▁sink	-11.7138
▁delgado	-11.7138
▁exitoso	-11.7138
▁pasaje	-11.7138
▁gripe	-11.7138
▁lenguaje	-11.7138
▁hatred	-11.7139
▁salón	-11.7139
▁confidence	-11.7139
▁impedir	-11.7139
▁cloudy	-11.7139
▁guía	-11.7139
▁thrilled	-11.7139
▁drowned	-11.7139
▁flow	-11.714
▁visible	-11.714
▁pavo	-11.714
▁revel	-11.714
▁punctual	-11.7141
▁encouraged	-11.7141
▁sorprendería	-11.7142
▁incorrecto	-11.7142
▁subiendo	-11.7142
▁astuto	-11.7142
▁alegría	-11.7142
▁respira	-11.7142
▁perderás	-11.7142
▁path	-11.7143
▁sentamos	-11.7143
▁cheered	-11.7143
▁enseñando	-11.7143
▁warmer	-11.7144
▁barrio	-11.7145
▁cheating	-11.7145
▁gastado	-11.7145
▁ganando	-11.7145
▁divorcio	-11.7146
▁practical	-11.7148
▁mudó	-11.7148
▁loudly	-11.7148
▁crush	-11.7148
▁deceived	-11.7149
▁retired	-11.7149
▁lottery	-11.7149
▁fainted	-11.7149
▁unknown	-11.715
▁recursos	-11.715
▁float	-11.7151
▁sandwiches	-11.7151
▁comamos	-11.7153
▁reconocí	-11.7153
▁border	-11.7153
han	-11.7154
▁damaged	-11.7155
▁mezcla	-11.7156
▁misión	-11.7156
▁crashed	-11.7157
▁yard	-11.7158
▁ours	-11.7159
▁climbing	-11.7161
▁improved	-11.7162
ria	-11.7163
todos	-11.7164
▁preguntando	-11.7165
▁cultiva	-11.7166
▁respetar	-11.7167
▁insectos	-11.7168
▁fea	-11.7168
▁sudando	-11.7168
▁enojar	-11.7172
▁hundreds	-11.7177
▁sincera	-11.7178
▁latest	-11.7178
▁cumple	-11.7201
▁rainy	-11.7202
▁consecuencias	-11.7202
▁aquél	-11.7203
▁trabajas	-11.7206
▁daughters	-11.7206
▁estate	-11.721
▁ideal	-11.7216
▁creemos	-11.7216
▁compraron	-11.7219
▁beard	-11.7222
▁mirá	-11.7229
▁comb	-11.723
▁utiliza	-11.7231
▁trabajador	-11.7233
▁tigers	-11.7237
▁foreigners	-11.7247
▁comprarse	-11.7252
▁lobos	-11.7255
▁blamed	-11.728
▁seated	-11.7284
▁enero	-11.7285
▁cigarrillos	-11.729
▁pienses	-11.7291
▁knees	-11.73
▁dejas	-11.7302
▁políticos	-11.7308
▁juguetes	-11.7325
▁lamp	-11.733
manded	-11.7331
▁documents	-11.7343
▁compara	-11.7344
arte	-11.7352
▁lawn	-11.7356
misunderstanding	-11.7367
▁asegur	-11.7372
▁letras	-11.7386
▁seria	-11.7393
op	-11.7395
▁juntar	-11.7395
▁showing	-11.7405
▁vasos	-11.7407
▁pis	-11.7415
▁pa	-11.7418
ica	-11.7425
▁abandon	-11.7434
gó	-11.7438
eras	-11.7439
ke	-11.7448
▁stones	-11.7485
▁baila	-11.7486
x	-11.7488
▁caus	-11.7492
▁locos	-11.7509
▁llaman	-11.7511
▁ref	-11.7519
▁dejá	-11.7524
▁lanza	-11.7529
▁bi	-11.7538
▁tapa	-11.7551
▁derram	-11.7552
▁toque	-11.756
▁vayan	-11.7563
▁limpias	-11.7574
▁cds	-11.7589
ados	-11.7593
▁llamadas	-11.7612
▁anterior	-11.7614
▁asusta	-11.7649
▁universitario	-11.7656
▁ventaja	-11.7656
out	-11.7656
▁fresca	-11.7656
▁mosquito	-11.766
▁barata	-11.766
▁falsa	-11.766
▁sonríe	-11.766
▁prima	-11.766
▁source	-11.766
▁odd	-11.7661
▁conocimiento	-11.7663
▁ciervo	-11.7663
▁pesadilla	-11.7664
▁corté	-11.7664
▁cambie	-11.7668
▁conozca	-11.7668
▁pedazo	-11.7668
▁politician	-11.7669
▁prisionero	-11.7669
▁voluntario	-11.7669
▁sienta	-11.7669
▁rabbit	-11.767
▁conejo	-11.767
▁serpiente	-11.767
▁snake	-11.767
▁segundos	-11.7674
▁liber	-11.768
▁bears	-11.7693
▁interior	-11.7699
▁quema	-11.771
▁tuyos	-11.771
▁vaca	-11.7717
▁quita	-11.7718
▁ladra	-11.7723
▁horror	-11.7724
▁fu	-11.7728
▁firma	-11.7733
edades	-11.7735
▁preocupados	-11.7747
▁cen	-11.7748
▁temer	-11.7749
▁loose	-11.775
▁qui	-11.7753
shirt	-11.7755
thirty	-11.7755
ahora	-11.7755
▁serve	-11.7758
▁caza	-11.7758
handed	-11.776
▁disgust	-11.7762
vale	-11.7763
▁pusi	-11.7764
soy	-11.7769
▁reunió	-11.7772
▁mark	-11.7781
▁despertado	-11.7784
▁falls	-11.7785
▁engañar	-11.779
▁quarrel	-11.7792
▁aprecia	-11.7797
▁escolar	-11.7798
▁skate	-11.7799
▁insist	-11.7799
▁absolute	-11.7799
▁trigo	-11.78
▁demostrar	-11.78
▁negar	-11.7801
scribió	-11.7803
▁veneno	-11.7803
▁aprobado	-11.7804
▁asintió	-11.7804
▁delegate	-11.7804
▁duermo	-11.7804
▁escrita	-11.7804
▁exámenes	-11.7804
▁forehead	-11.7804
▁frigorífico	-11.7804
▁handwriting	-11.7804
▁independent	-11.7804
▁médica	-11.7804
▁niebla	-11.7804
▁ochenta	-11.7804
▁ordinary	-11.7804
▁popcorn	-11.7804
▁purchase	-11.7804
▁recomendó	-11.7804
▁riqueza	-11.7804
▁rotten	-11.7804
▁stool	-11.7804
▁surprising	-11.7804
▁thumb	-11.7804
▁timbre	-11.7804
▁toothpaste	-11.7804
▁universal	-11.7804
▁volleyball	-11.7804
▁withdraw	-11.7804
▁wolves	-11.7804
▁álbum	-11.7804
▁audiencia	-11.7804
▁fierce	-11.7804
▁haircut	-11.7804
▁silk	-11.7804
▁sírva	-11.7804
▁atractiva	-11.7804
▁pésimo	-11.7804
▁sesenta	-11.7804
▁culpo	-11.7804
▁heladera	-11.7804
▁infantil	-11.7804
▁sake	-11.7804
▁aguanto	-11.7804
▁bici	-11.7804
▁punishment	-11.7804
▁magia	-11.7804
▁stew	-11.7804
▁princesa	-11.7804
▁alquiler	-11.7804
▁breed	-11.7804
▁renunció	-11.7804
▁volvamos	-11.7804
▁wings	-11.7804
▁palace	-11.7804
▁escaso	-11.7804
▁otherwise	-11.7804
▁casco	-11.7804
▁tentación	-11.7804
▁comieron	-11.7804
▁silly	-11.7804
▁internacional	-11.7804
▁powerful	-11.7805
▁investigando	-11.7805
▁esperábamos	-11.7805
▁wheat	-11.7805
▁practicing	-11.7805
▁published	-11.7805
▁national	-11.7805
▁nevó	-11.7805
▁reconoció	-11.7805
▁prometido	-11.7805
▁"¡	-11.7805
▁harvest	-11.7806
▁micro	-11.7806
▁princess	-11.7806
▁coal	-11.7806
▁bush	-11.7806
▁oven	-11.7806
▁charlar	-11.7807
▁sucedido	-11.7807
▁librería	-11.7807
▁preocuparme	-11.7807
▁decidiste	-11.7807
▁beans	-11.7807
▁mencionó	-11.7808
▁cumplió	-11.7808
▁scary	-11.7808
▁difficulties	-11.7808
▁sinceramente	-11.7808
▁invité	-11.7808
▁track	-11.7809
▁recuperó	-11.7809
▁preparada	-11.7809
▁active	-11.7809
▁llegada	-11.781
▁bajando	-11.781
▁golden	-11.781
▁enamoró	-11.7811
▁secretos	-11.7811
▁camping	-11.7812
▁grito	-11.7812
▁buscaba	-11.7812
▁state	-11.7813
▁distract	-11.7813
▁cumplido	-11.7814
▁disco	-11.7814
▁conducta	-11.7815
▁agudo	-11.7816
▁punch	-11.7816
▁insects	-11.7818
▁tijeras	-11.7818
▁bola	-11.7818
▁infeliz	-11.7819
▁higher	-11.7823
▁insulted	-11.7826
▁resources	-11.7827
▁admired	-11.7827
▁ahorros	-11.7828
▁contestó	-11.7828
▁llevé	-11.7829
▁dancer	-11.7831
▁llamaron	-11.7832
▁career	-11.7833
▁normally	-11.7835
▁palo	-11.7835
▁cambiará	-11.7835
▁rió	-11.7836
▁salvajes	-11.7836
▁alérgica	-11.7836
▁señora	-11.7842
▁relaxed	-11.7844
▁complaints	-11.7845
▁nerves	-11.7846
▁ayudarla	-11.7846
▁wipe	-11.7847
▁remains	-11.7848
▁papeles	-11.785
up	-11.785
▁entiendes	-11.7852
▁instante	-11.7853
▁intentes	-11.7857
▁avisar	-11.7863
▁ancianos	-11.7865
▁entendería	-11.7873
▁deserved	-11.7875
▁leyes	-11.7875
▁balance	-11.7878
▁cast	-11.7882
▁viví	-11.7892
▁trescient	-11.7902
▁tigres	-11.7902
▁veras	-11.7906
▁ayudaré	-11.7908
▁vais	-11.7909
pr	-11.7917
you	-11.7919
▁rojos	-11.7921
▁sucede	-11.7921
▁velas	-11.7923
▁streets	-11.7924
▁content	-11.7924
▁humana	-11.7926
▁alquilar	-11.7929
▁rabbits	-11.7939
▁nails	-11.7942
▁abus	-11.7968
▁secrets	-11.7968
▁beg	-11.798
▁esperara	-11.7984
▁adults	-11.7987
pi	-11.799
▁prefieres	-11.799
▁cancelar	-11.8002
▁interesantes	-11.8005
▁difíciles	-11.8009
▁regards	-11.8015
▁sangra	-11.8017
▁atropell	-11.8018
led	-11.8022
▁llora	-11.8026
▁escrib	-11.8044
▁gustaban	-11.8047
▁adoptar	-11.8048
▁llegaré	-11.8055
▁stops	-11.8059
▁hermosas	-11.806
▁digan	-11.8067
▁números	-11.8069
▁fle	-11.8083
▁formal	-11.8089
▁smokes	-11.8092
▁usan	-11.8104
▁estúpidas	-11.811
▁vengan	-11.8124
▁cho	-11.813
▁fuerzas	-11.8158
▁suitcases	-11.8167
tuviste	-11.8199
lew	-11.8202
▁piedras	-11.8206
▁sube	-11.8208
▁sopl	-11.821
ard	-11.8219
rías	-11.8221
▁hablarle	-11.824
▁ka	-11.8258
▁junt	-11.826
▁cometa	-11.827
▁k	-11.827
ería	-11.8275
▁seda	-11.8281
▁perdona	-11.8284
▁frutas	-11.8292
▁tumba	-11.8293
vertirse	-11.8297
▁acostumbr	-11.8302
ware	-11.8311
▁sew	-11.8327
rían	-11.8333
▁sub	-11.8346
ished	-11.8351
▁aliment	-11.8353
rte	-11.8364
▁character	-11.8379
▁verdes	-11.838
▁principiante	-11.8381
▁elefante	-11.8383
▁deseos	-11.8383
▁comment	-11.8383
▁nail	-11.8384
▁peligrosa	-11.8384
▁farmer	-11.8385
▁candle	-11.8385
▁fantasma	-11.8386
▁droga	-11.8387
▁competent	-11.8387
ily	-11.8389
▁alimento	-11.8395
iera	-11.8395
actuando	-11.8398
pé	-11.8404
▁sometime	-11.8406
imed	-11.8406
▁memoriz	-11.8408
▁goat	-11.8408
▁traiga	-11.8409
▁lobo	-11.8416
metió	-11.8419
▁consist	-11.8419
ucho	-11.8442
ármelo	-11.8444
▁comprende	-11.8444
▁gang	-11.8445
▁individual	-11.8453
▁escala	-11.8454
▁heridos	-11.8454
gracias	-11.8455
creés	-11.8466
▁papa	-11.8469
fuiste	-11.8469
will	-11.8471
▁rise	-11.8476
▁juegue	-11.8476
▁korea	-11.8478
▁exact	-11.8478
▁astronaut	-11.8479
▁vueltas	-11.8485
cy	-11.8485
▁odiar	-11.8487
▁aspirin	-11.8488
ándome	-11.8493
vienes	-11.8495
▁daños	-11.8497
▁disagree	-11.8499
▁postpone	-11.8503
▁crack	-11.8504
▁pronounce	-11.8506
▁moto	-11.8507
▁conduct	-11.8507
▁tax	-11.8508
▁exterior	-11.8511
▁corea	-11.8511
▁comidas	-11.8512
▁furious	-11.8513
▁fluent	-11.8514
▁robber	-11.8514
▁prime	-11.8515
▁materia	-11.8516
▁east	-11.8517
▁commit	-11.8518
▁orphan	-11.8518
▁acento	-11.8518
▁arrival	-11.8518
▁arrow	-11.8518
▁campaign	-11.8518
▁circle	-11.8518
▁comencemos	-11.8518
▁círculo	-11.8518
▁description	-11.8518
▁dish	-11.8518
▁environment	-11.8518
▁essential	-11.8518
▁explique	-11.8518
▁fbi	-11.8518
▁forecast	-11.8518
▁garaje	-11.8518
▁glance	-11.8518
▁increasing	-11.8518
▁injusto	-11.8518
▁jabón	-11.8518
▁llores	-11.8518
▁luxury	-11.8518
▁portugal	-11.8518
▁pudieron	-11.8518
▁racket	-11.8518
▁roosevelt	-11.8518
▁semejante	-11.8518
▁soborno	-11.8518
▁switzerland	-11.8518
▁technology	-11.8518
▁tecnología	-11.8518
▁telefónica	-11.8518
▁unconscious	-11.8518
▁victim	-11.8518
▁whisky	-11.8518
▁wolf	-11.8518
▁yourselves	-11.8518
▁árabe	-11.8518
▁conceal	-11.8518
▁hilton	-11.8518
▁hiroshima	-11.8518
▁millionaire	-11.8518
▁predecir	-11.8518
▁below	-11.8518
▁inesperado	-11.8518
▁suicidio	-11.8518
▁gym	-11.8518
▁plain	-11.8518
▁ésos	-11.8518
▁charity	-11.8518
▁delegados	-11.8518
▁escoba	-11.8518
▁optimistic	-11.8518
▁composition	-11.8518
▁palacio	-11.8518
▁presencia	-11.8518
▁suiza	-11.8518
▁campaña	-11.8518
▁recurrir	-11.8518
▁jury	-11.8518
▁nacimiento	-11.8518
▁perdiste	-11.8518
▁dizzy	-11.8518
▁volviera	-11.8518
▁underestimate	-11.8518
▁toyota	-11.8518
▁cuero	-11.8518
▁tidy	-11.8518
▁confíe	-11.8518
▁continuación	-11.8518
▁bookstore	-11.8518
▁desagradable	-11.8518
▁sorprendente	-11.8518
▁figura	-11.8518
▁broom	-11.8518
▁reino	-11.8518
▁fuga	-11.8519
▁mojado	-11.8519
▁digging	-11.8519
▁pusiste	-11.8519
▁operación	-11.8519
▁rechazado	-11.8519
▁interpreter	-11.8519
▁convertido	-11.8519
▁grasa	-11.8519
▁unlocked	-11.8519
▁empeorando	-11.8519
▁automovilístico	-11.852
▁empezaste	-11.852
▁condenado	-11.852
▁inquieto	-11.852
▁unlucky	-11.852
▁fake	-11.852
▁spicy	-11.8521
▁parties	-11.8521
▁chew	-11.8521
▁enviado	-11.8521
▁pusiera	-11.8522
▁permitió	-11.8522
▁cambiando	-11.8522
▁desayunado	-11.8522
▁preocuparte	-11.8523
▁caí	-11.8523
▁funcionará	-11.8523
▁nieva	-11.8524
▁struck	-11.8524
▁votaron	-11.8524
▁style	-11.8524
▁recomendar	-11.8525
▁talentoso	-11.8525
▁probarlo	-11.8526
▁hunger	-11.8526
▁convencerlo	-11.8527
▁suelto	-11.8527
▁sentaron	-11.8528
▁arreglarlo	-11.8528
▁tercera	-11.8528
▁coreano	-11.8528
▁disgusting	-11.8529
▁bow	-11.8529
▁banca	-11.8529
▁mas	-11.8529
▁convencerle	-11.8529
▁nado	-11.853
▁oración	-11.853
▁llegando	-11.8531
▁online	-11.8531
▁sobrevivió	-11.8533
▁hilo	-11.8535
▁cortado	-11.8536
▁saludos	-11.8536
▁mentí	-11.8537
▁eighty	-11.8537
▁earned	-11.8538
▁searching	-11.8539
dejaste	-11.8539
▁averigua	-11.8541
sabéis	-11.8545
▁tango	-11.8545
▁tocaba	-11.8545
▁caridad	-11.8547
▁minor	-11.8547
▁aspirina	-11.8548
▁confident	-11.8552
▁firmó	-11.8552
▁enfermedades	-11.8555
▁durará	-11.8556
▁recordó	-11.8557
▁astronauta	-11.8557
▁examine	-11.8559
▁vacant	-11.8559
▁breathing	-11.8561
▁mire	-11.8562
▁decisiones	-11.857
▁bomberos	-11.8574
▁appreciated	-11.8577
▁populares	-11.858
▁entering	-11.858
▁visitarme	-11.8583
▁crops	-11.8583
▁lips	-11.8583
▁permíta	-11.8585
▁encontrarlo	-11.8596
▁operate	-11.86
▁stands	-11.8602
▁basa	-11.8603
▁pierdas	-11.8604
▁customers	-11.8604
▁ingresos	-11.8604
▁toys	-11.8609
▁comemos	-11.8611
▁adolescentes	-11.8614
▁negros	-11.8615
▁parts	-11.8615
▁cuentas	-11.8617
▁casaron	-11.8621
▁eche	-11.8624
▁latin	-11.8626
▁momentos	-11.8628
▁budget	-11.8638
▁aseguro	-11.8639
▁veros	-11.8641
▁judg	-11.8643
▁influencia	-11.8643
▁chairs	-11.8645
▁encontrarme	-11.8645
▁vivos	-11.8651
▁terminará	-11.8652
▁canilla	-11.8652
▁lid	-11.8663
▁sientas	-11.8664
▁despegar	-11.8669
▁anota	-11.8672
▁reads	-11.8673
▁cortinas	-11.8674
▁precioso	-11.8676
▁juntas	-11.8676
▁sucia	-11.8677
▁sillas	-11.8686
▁monos	-11.8693
▁pides	-11.8705
▁dejarte	-11.8708
ame	-11.8717
▁tip	-11.8722
▁pares	-11.8725
▁prisoners	-11.8726
▁sorprender	-11.8729
hi	-11.8733
fi	-11.8745
▁ciudadanos	-11.8746
▁shine	-11.8747
▁nación	-11.8769
▁savings	-11.8787
▁ends	-11.8788
▁decisions	-11.8795
▁dr	-11.8798
▁jugará	-11.8798
▁aun	-11.8804
▁durar	-11.8805
▁faces	-11.8834
▁revisar	-11.8837
▁suicida	-11.8842
▁cakes	-11.889
▁golpear	-11.8897
▁jo	-11.891
▁mild	-11.8915
▁pare	-11.8918
▁metas	-11.8923
ura	-11.8927
ea	-11.8933
▁alerta	-11.8935
ob	-11.8939
ezca	-11.8963
ez	-11.8966
▁baña	-11.8971
▁contactar	-11.8971
tara	-11.8979
▁term	-11.8984
▁risks	-11.9003
▁gustar	-11.9014
▁pequeñas	-11.9028
▁li	-11.903
▁seek	-11.9036
▁invit	-11.904
▁gastar	-11.9043
▁amanecer	-11.9043
▁trampas	-11.9056
men	-11.9057
▁flirt	-11.9069
sistieron	-11.9079
▁pet	-11.9079
bo	-11.9081
▁laughs	-11.9098
▁sabrá	-11.9102
▁economic	-11.9104
ned	-11.9106
▁encontraré	-11.9115
▁viejas	-11.9118
▁foods	-11.9127
minded	-11.9127
aría	-11.9134
▁milagro	-11.9139
▁sabio	-11.914
▁invention	-11.914
▁crudo	-11.9142
▁conociera	-11.9143
▁constant	-11.9145
▁pig	-11.9145
▁hierba	-11.9146
▁tontería	-11.9146
▁block	-11.9148
▁límite	-11.9148
▁diamante	-11.9149
▁sincero	-11.9151
▁elephant	-11.9152
▁rueda	-11.9152
▁rayo	-11.9154
▁cow	-11.9155
▁rana	-11.9159
▁foreigner	-11.9163
▁cable	-11.9171
ier	-11.9179
▁exams	-11.9183
▁ayudarlo	-11.9201
▁chill	-11.9207
▁crece	-11.9208
▁bonitas	-11.9224
▁cop	-11.9227
▁cuantos	-11.9232
▁tomaste	-11.9234
▁leña	-11.9234
oíste	-11.9236
▁rompe	-11.9237
phone	-11.9238
house	-11.9239
▁resume	-11.9241
volvió	-11.9243
tomás	-11.9245
▁famosos	-11.9245
sabías	-11.9246
mira	-11.9248
tan	-11.9249
cho	-11.9261
▁cheat	-11.9265
oh	-11.9268
▁influence	-11.927
▁cloth	-11.9271
▁respeta	-11.9272
▁rescue	-11.9272
▁bake	-11.9272
▁mexican	-11.9273
▁reward	-11.9274
▁develop	-11.9274
▁pianist	-11.9275
▁fren	-11.9278
▁graduate	-11.9278
▁divertir	-11.928
▁spill	-11.928
▁dólar	-11.9281
▁cuchara	-11.9282
▁cálida	-11.9284
▁conociste	-11.9285
▁comfort	-11.9286
▁declara	-11.9286
▁acquaint	-11.9287
▁settle	-11.9287
▁flash	-11.9287
▁enemiga	-11.9287
▁estricta	-11.9287
▁aguja	-11.9287
▁carbón	-11.9287
▁castigo	-11.9287
▁chemistry	-11.9287
▁chimenea	-11.9287
▁chocó	-11.9287
▁combustible	-11.9287
▁conmovió	-11.9287
▁discount	-11.9287
▁eager	-11.9287
▁económica	-11.9287
▁egypt	-11.9287
▁engañe	-11.9287
▁estufa	-11.9287
▁fantastic	-11.9287
▁faucet	-11.9287
▁filipino	-11.9287
▁flame	-11.9287
▁generous	-11.9287
▁homicidio	-11.9287
▁honeymoon	-11.9287
▁huelga	-11.9287
▁inténtalo	-11.9287
▁julio	-11.9287
▁lyrics	-11.9287
▁lámpara	-11.9287
▁motocicleta	-11.9287
▁necklace	-11.9287
▁overslept	-11.9287
▁pedimos	-11.9287
▁pensamientos	-11.9287
▁portátil	-11.9287
▁poverty	-11.9287
▁préstamo	-11.9287
▁puerto	-11.9287
▁romántico	-11.9287
▁semáforo	-11.9287
▁shampoo	-11.9287
▁surrounded	-11.9287
▁sweep	-11.9287
▁taburete	-11.9287
▁terribly	-11.9287
▁unhealthy	-11.9287
▁veterinario	-11.9287
▁videojuegos	-11.9287
▁wednesday	-11.9287
▁alphabet	-11.9287
▁coach	-11.9287
▁excepción	-11.9287
▁hirviendo	-11.9287
▁justicia	-11.9287
▁jurado	-11.9287
▁smith	-11.9287
▁briefcase	-11.9287
▁fifth	-11.9287
▁skinny	-11.9287
▁traducción	-11.9287
▁militar	-11.9287
▁competencia	-11.9287
▁literatura	-11.9287
▁divirtiendo	-11.9287
▁multa	-11.9287
▁region	-11.9287
▁asistente	-11.9287
▁property	-11.9287
▁soleado	-11.9287
▁temptation	-11.9287
▁inundación	-11.9287
▁cellphone	-11.9287
▁freedom	-11.9287
▁asombroso	-11.9287
▁exigi	-11.9287
▁fascinante	-11.9287
▁slipped	-11.9287
▁possibly	-11.9287
▁collection	-11.9287
▁fumo	-11.9287
▁orgullosos	-11.9287
▁ignorance	-11.9287
▁fascinating	-11.9287
▁investigating	-11.9287
▁ignorancia	-11.9287
▁producción	-11.9287
▁shallow	-11.9287
▁gimnasio	-11.9288
▁amargo	-11.9288
▁scarf	-11.9288
▁mandé	-11.9288
▁defectos	-11.9288
ámonos	-11.9288
▁miserable	-11.9288
▁announced	-11.9288
▁estuviese	-11.9288
▁ninety	-11.9288
▁practicando	-11.9288
▁sunset	-11.9288
▁nublado	-11.9288
▁goose	-11.9288
▁máximo	-11.9288
▁mareado	-11.9288
▁tasa	-11.9288
▁ahorrando	-11.9288
▁humanidad	-11.9288
▁medalla	-11.9288
▁ocasiones	-11.9288
▁maid	-11.9289
▁desorientado	-11.9289
▁bunch	-11.9289
▁cerebro	-11.9289
▁aumentando	-11.9289
▁típico	-11.9289
▁charming	-11.9289
▁embarrassing	-11.9289
▁cuanta	-11.9289
▁roommate	-11.9289
▁apurado	-11.9289
▁shining	-11.9289
▁prometí	-11.9289
▁mantenga	-11.9289
▁reality	-11.929
▁pardon	-11.929
▁chores	-11.929
▁sixty	-11.929
▁camp	-11.929
▁july	-11.929
▁asustada	-11.929
▁rama	-11.929
▁leather	-11.929
▁charlando	-11.9291
▁guide	-11.9291
▁sufrió	-11.9291
▁shape	-11.9292
▁molestando	-11.9292
▁approached	-11.9293
▁millonario	-11.9293
▁compone	-11.9293
▁agradecerle	-11.9294
▁quejarte	-11.9294
▁conseguiste	-11.9294
▁hipo	-11.9295
▁absurdo	-11.9295
tic	-11.9295
▁crió	-11.9295
▁ángeles	-11.9295
▁confiaba	-11.9296
▁security	-11.9296
▁recovered	-11.9296
▁clothing	-11.9297
▁rodeado	-11.9297
▁empecemos	-11.9297
▁pudiste	-11.9297
▁traído	-11.9297
▁mueve	-11.9297
▁dyed	-11.9298
▁saldrá	-11.9298
▁entrenador	-11.9298
▁pianista	-11.9299
▁descripción	-11.9303
▁sentarte	-11.9303
▁mientas	-11.9304
▁memorizar	-11.9304
▁ranch	-11.9304
▁quint	-11.9304
▁terminamos	-11.9304
▁shooting	-11.9304
▁sigamos	-11.9305
▁reírme	-11.9305
▁postponed	-11.9305
▁medal	-11.9307
▁stain	-11.9308
▁enterrado	-11.9309
▁pasta	-11.931
▁pure	-11.931
▁drawing	-11.9312
▁escuchaste	-11.9312
▁repeated	-11.9312
▁mentioned	-11.9317
▁fatal	-11.9318
▁entenderlo	-11.9319
▁longest	-11.932
▁oírlo	-11.9321
▁pinch	-11.9323
▁packed	-11.9323
▁gustará	-11.9325
▁contarle	-11.9325
▁enseñarte	-11.9325
▁crown	-11.9326
▁vela	-11.9329
▁ajustar	-11.9336
▁fooled	-11.9336
▁opiniones	-11.9338
▁tasted	-11.9342
▁entendió	-11.9342
▁direct	-11.9348
▁rumores	-11.935
▁accent	-11.9351
▁loosen	-11.9352
▁tira	-11.9353
ial	-11.9354
▁aprovechar	-11.9355
▁data	-11.9357
pped	-11.9358
▁llevado	-11.9358
▁welcomed	-11.9363
▁escuchaba	-11.9369
▁pagará	-11.937
▁escuchas	-11.9371
▁charle	-11.9378
▁ocurren	-11.9379
▁tools	-11.9379
▁citizens	-11.938
▁escuches	-11.938
ló	-11.9383
▁ho	-11.9388
▁sobras	-11.939
▁dial	-11.939
▁molestes	-11.9391
▁tells	-11.9396
▁mejorando	-11.9403
▁doscient	-11.9406
gas	-11.941
▁mass	-11.9414
ling	-11.9421
▁creep	-11.9424
▁candles	-11.9435
▁politicians	-11.9446
▁prisioneros	-11.9446
hablas	-11.9452
▁llenos	-11.9453
▁manten	-11.9454
▁cultural	-11.9458
▁ages	-11.9474
bré	-11.9478
▁encuentres	-11.9478
▁cha	-11.9495
tura	-11.952
▁entienden	-11.9541
▁sabíamos	-11.9553
sos	-11.9564
way	-11.9566
▁answering	-11.9578
sistencia	-11.9592
▁burns	-11.9601
▁arrives	-11.9602
ué	-11.9605
▁walls	-11.9609
▁contiene	-11.962
▁vinieras	-11.9623
▁pospone	-11.9635
▁ku	-11.9635
ine	-11.9657
▁tirar	-11.9657
▁esperá	-11.9666
▁mental	-11.9692
▁interpret	-11.9695
▁pat	-11.9695
mu	-11.9699
▁conditions	-11.972
▁solicit	-11.9722
▁esperes	-11.9726
▁ocult	-11.9727
the	-11.9728
▁abogados	-11.973
chó	-11.9733
▁blancos	-11.9752
vete	-11.9757
▁supieras	-11.9757
▁trozos	-11.9769
▁agrees	-11.9776
▁arrojar	-11.9777
ric	-11.9778
▁sir	-11.9791
put	-11.98
▁acabe	-11.9808
nza	-11.9818
▁grano	-11.9826
▁llamara	-11.9827
▁asks	-11.9828
▁bur	-11.9828
▁visitas	-11.9833
fully	-11.9836
estaba	-11.9842
▁fa	-11.9847
▁operar	-11.9851
ang	-11.987
gi	-11.9871
encia	-11.9871
▁negoci	-11.9872
tera	-11.9877
▁weigh	-11.9882
▁plancha	-11.9882
▁puestos	-11.9885
▁admira	-11.9898
▁aplica	-11.9903
▁extend	-11.9907
▁temas	-11.9917
▁juegas	-11.9935
▁regresa	-11.9944
▁ste	-11.9954
▁comprara	-11.9955
▁idiotas	-11.9957
▁boil	-11.9959
▁quedará	-11.9959
▁seize	-11.996
▁volunteer	-11.9967
▁miracle	-11.9973
▁pijama	-11.9973
▁paintings	-11.9973
▁buildings	-11.9973
▁nightmare	-11.9977
▁andá	-11.9981
▁archivo	-11.9982
med	-11.9983
▁sorprendidos	-11.9984
▁siguen	-11.9986
▁gemelo	-11.9987
▁banana	-11.9987
▁araña	-11.9988
▁relative	-11.9988
▁alumno	-11.9988
▁tiger	-11.9989
▁trick	-11.9989
▁pondrá	-11.9992
▁sheet	-12.0004
▁consiga	-12.0016
▁recuerdos	-12.0018
▁cambios	-12.0019
cre	-12.0031
▁sa	-12.0051
▁becomes	-12.0057
▁alas	-12.0058
zing	-12.0062
▁blam	-12.0063
▁oscur	-12.0068
employed	-12.0069
llama	-12.0071
sobre	-12.0072
recibi	-12.0073
▁viajes	-12.0078
▁industrial	-12.0079
aún	-12.0079
▁exit	-12.008
▁image	-12.0082
▁ag	-12.0082
▁montó	-12.0088
▁organ	-12.0088
▁labor	-12.0092
▁absurd	-12.0099
▁repetir	-12.0105
▁surrender	-12.0107
▁pistol	-12.0107
▁accomplish	-12.0108
▁defeat	-12.0108
▁novelist	-12.0108
▁tercer	-12.0109
aña	-12.0109
▁period	-12.0111
ice	-12.0113
▁acudir	-12.0113
▁potato	-12.0114
▁cuadra	-12.0114
▁incredibl	-12.0116
▁recent	-12.0116
▁happie	-12.0117
▁estupenda	-12.0118
▁probado	-12.0118
▁compro	-12.0119
▁circula	-12.012
▁rug	-12.012
▁disneyland	-12.012
▁alibi	-12.012
▁envíe	-12.012
▁invisible	-12.012
▁plastic	-12.012
▁pésima	-12.012
▁pública	-12.012
▁scheme	-12.012
▁apuñaló	-12.012
▁atmosphere	-12.012
▁atmósfera	-12.012
▁awesome	-12.012
▁bastón	-12.012
▁cadena	-12.012
▁coartada	-12.012
▁cueva	-12.012
▁curiosity	-12.012
▁dirige	-12.012
▁egipto	-12.012
▁engañado	-12.012
▁hagámoslo	-12.012
▁indispensable	-12.012
▁jersey	-12.012
▁juramento	-12.012
▁koala	-12.012
▁mahjong	-12.012
▁maletero	-12.012
▁muralla	-12.012
▁obtuve	-12.012
▁olvidadizo	-12.012
▁outdoors	-12.012
▁pacífico	-12.012
▁perfume	-12.012
▁reliable	-12.012
▁resemblance	-12.012
▁sacerdote	-12.012
▁skating	-12.012
▁solving	-12.012
▁sucediendo	-12.012
▁suspicion	-12.012
▁twitter	-12.012
▁uncomfortable	-12.012
▁vodka	-12.012
▁voleibol	-12.012
▁colección	-12.012
▁helmet	-12.012
▁pledge	-12.012
▁raqueta	-12.012
▁risa	-12.012
▁construction	-12.012
▁noventa	-12.012
▁surgery	-12.012
▁apropiado	-12.012
▁despegó	-12.012
▁oath	-12.012
▁spoon	-12.012
▁textbook	-12.012
▁hurried	-12.012
▁registradora	-12.012
▁essay	-12.0121
▁forzado	-12.0121
▁pollera	-12.0121
▁siglo	-12.0121
▁steak	-12.0121
▁perdida	-12.0121
▁región	-12.0121
▁assistance	-12.0121
▁teresa	-12.0121
▁creciendo	-12.0121
▁kong	-12.0121
▁viniendo	-12.0121
rubbed	-12.0121
▁tries	-12.0121
▁queráis	-12.0121
▁condujera	-12.0121
▁detallada	-12.0121
▁empeorar	-12.0121
▁production	-12.0121
▁prometiste	-12.0121
▁aggressive	-12.0121
▁jarra	-12.0121
▁scarce	-12.0121
▁comenzando	-12.0121
▁marzo	-12.0121
▁serbia	-12.0121
▁modales	-12.0121
▁pobreza	-12.0121
▁downtown	-12.0121
▁gané	-12.0122
▁lloraba	-12.0122
▁latín	-12.0122
▁talkative	-12.0122
▁concentrarme	-12.0122
▁relajado	-12.0122
▁hunter	-12.0122
▁kidnapped	-12.0122
▁sentimos	-12.0122
▁harp	-12.0122
▁tolerate	-12.0122
▁presupuesto	-12.0122
▁severo	-12.0122
▁contrató	-12.0123
▁tardará	-12.0123
▁secretaria	-12.0123
▁miércoles	-12.0123
▁dawn	-12.0123
▁retiró	-12.0123
▁petición	-12.0123
▁effective	-12.0123
▁previsto	-12.0123
▁postura	-12.0123
▁aventura	-12.0124
▁defender	-12.0124
▁fried	-12.0124
▁plead	-12.0124
▁cuán	-12.0125
▁solid	-12.0125
▁fumando	-12.0125
▁pride	-12.0125
▁relieved	-12.0125
▁conciencia	-12.0126
▁sword	-12.0127
▁agradecerte	-12.0127
▁theft	-12.0127
▁horno	-12.0128
▁incredible	-12.0128
▁frontera	-12.0129
▁yelling	-12.013
▁lastimado	-12.013
▁besando	-12.013
tas	-12.0131
▁saldr	-12.0131
▁rancho	-12.0131
▁diseño	-12.0132
▁congratulated	-12.0132
▁función	-12.0132
▁rollo	-12.0132
▁jar	-12.0133
gging	-12.0134
▁apuntes	-12.0134
▁evidente	-12.0135
▁servirá	-12.0135
▁defeated	-12.0135
▁anytime	-12.0136
▁windy	-12.0137
▁especialmente	-12.0137
▁leak	-12.0137
▁collected	-12.0137
▁trash	-12.0139
▁resigned	-12.0139
▁install	-12.0139
▁prayed	-12.0139
donald	-12.014
▁frozen	-12.014
▁compramos	-12.014
ze	-12.0141
▁retirar	-12.0141
▁practicar	-12.0141
▁sufre	-12.0142
▁importaba	-12.0142
▁cogieron	-12.0143
▁buscas	-12.0143
▁repairing	-12.0145
▁lavarse	-12.0145
▁pala	-12.0145
▁interrupted	-12.0146
▁planeado	-12.0147
omic	-12.0147
▁contenta	-12.0148
▁preguntaré	-12.0149
▁intentaré	-12.015
▁levantarte	-12.015
▁helpful	-12.0151
▁expenses	-12.0153
▁advanced	-12.0153
▁alike	-12.0155
▁llegaremos	-12.0157
▁remove	-12.016
▁cure	-12.0161
▁knocking	-12.0162
▁hamburguesas	-12.0162
▁vendedor	-12.0165
▁palm	-12.0165
▁waiter	-12.0167
▁salía	-12.0168
▁ayudaros	-12.0169
▁landed	-12.0169
▁compraría	-12.0169
▁helpless	-12.0169
▁matarme	-12.0171
▁cruza	-12.0172
▁dormía	-12.0174
▁marchar	-12.0174
▁corona	-12.0175
▁soñar	-12.0175
▁observar	-12.0178
▁huérfano	-12.0178
▁manej	-12.0178
▁cantaba	-12.0178
▁pronuncia	-12.0181
▁shed	-12.0181
▁ponerlo	-12.0182
▁entendía	-12.0183
▁consideran	-12.0185
▁arrancar	-12.0186
▁x	-12.0188
▁wan	-12.019
▁sung	-12.0191
▁rep	-12.0191
▁slapp	-12.0191
▁estaciones	-12.0193
▁litera	-12.0194
▁preguntado	-12.0195
▁reconocer	-12.0196
▁counting	-12.0196
▁mor	-12.0197
▁estampillas	-12.0198
▁británicos	-12.0198
per	-12.0199
▁handy	-12.02
▁agradec	-12.0201
▁dresses	-12.0201
▁robot	-12.0204
▁cal	-12.0207
▁hablara	-12.0209
▁aboard	-12.0211
▁falló	-12.0211
▁recuperar	-12.0212
▁mud	-12.0215
▁boxes	-12.0221
▁plátanos	-12.0222
▁cometí	-12.0222
▁crecer	-12.0231
▁bal	-12.0233
▁libres	-12.0233
▁ballenas	-12.0234
▁mislead	-12.0237
▁armed	-12.0238
▁consiste	-12.0239
dded	-12.0239
▁probó	-12.0242
▁stare	-12.0244
▁skills	-12.0246
ul	-12.0259
▁cops	-12.0265
▁elephants	-12.0269
▁ruedas	-12.0269
▁abandona	-12.0273
▁funcione	-12.0281
▁elefantes	-12.0281
▁comments	-12.0282
▁rested	-12.0282
▁prob	-12.0284
▁pace	-12.0288
tions	-12.0293
▁pedazos	-12.0293
▁relate	-12.0304
▁cheques	-12.0306
▁sucios	-12.0318
rán	-12.0318
sion	-12.0322
▁bitte	-12.0329
▁rodillas	-12.033
vos	-12.0337
▁forgiven	-12.0343
▁acto	-12.0346
▁criad	-12.0347
▁official	-12.0365
▁vivi	-12.0368
▁adaptar	-12.0371
▁enfrentar	-12.0376
▁tristes	-12.0379
▁aumenta	-12.0387
▁antiguas	-12.039
▁discuta	-12.0395
▁inso	-12.0396
▁pills	-12.0402
▁tiendas	-12.0404
▁tocado	-12.0407
signed	-12.0413
▁hambrientos	-12.0414
▁persuadir	-12.0429
▁tard	-12.0429
▁heridas	-12.0439
▁cases	-12.0449
▁pesos	-12.0463
▁numbers	-12.0472
▁phoned	-12.0473
alo	-12.0474
▁ciertas	-12.0499
cking	-12.0503
cen	-12.0521
▁lawyers	-12.0521
▁wasted	-12.0533
▁abuelos	-12.0533
▁atrapados	-12.0548
selo	-12.0552
▁cajas	-12.0553
▁riesgos	-12.0555
▁informar	-12.0555
▁acusar	-12.0558
▁arrastr	-12.0568
▁confirm	-12.0572
ered	-12.0573
sistió	-12.0586
▁horne	-12.059
ter	-12.0592
ary	-12.0605
▁rumors	-12.0607
▁dejará	-12.0611
▁habits	-12.0622
▁aguanta	-12.0624
▁bu	-12.0626
▁faltan	-12.0657
▁desperdicia	-12.0664
▁leía	-12.0667
▁jugu	-12.0671
0,000	-12.0675
▁queríamos	-12.0676
▁bags	-12.07
▁mayo	-12.0705
▁convenc	-12.0711
▁mina	-12.0715
▁nativos	-12.0721
▁saluda	-12.0728
▁exception	-12.0736
▁pega	-12.0749
▁arregla	-12.0755
▁desprecia	-12.0756
▁rem	-12.0758
▁vení	-12.0762
for	-12.0762
▁chinos	-12.0772
▁mereces	-12.0777
▁spa	-12.0779
▁suits	-12.0787
▁ab	-12.0791
via	-12.0796
▁needle	-12.0799
▁th	-12.0802
▁espaldas	-12.0808
▁mix	-12.0817
▁pu	-12.082
▁explica	-12.0829
▁estudios	-12.0833
▁causar	-12.0846
▁clave	-12.0859
▁explic	-12.086
ssed	-12.0861
▁compensa	-12.0863
▁retire	-12.0871
▁fac	-12.0872
▁skill	-12.0874
ally	-12.0882
▁económico	-12.0882
▁eléctrico	-12.0882
▁gatito	-12.0882
▁ovni	-12.0882
▁ufo	-12.0882
▁encendida	-12.0882
▁topic	-12.0887
▁bump	-12.0888
▁levante	-12.0889
▁distinta	-12.089
▁kite	-12.089
▁slice	-12.089
▁blanket	-12.0891
▁lemon	-12.0892
▁entienda	-12.0892
▁granjero	-12.0893
▁desconocido	-12.0893
▁truco	-12.0893
▁tigre	-12.0896
▁turista	-12.0902
▁bills	-12.092
▁fina	-12.0925
▁lines	-12.0932
▁déje	-12.0941
▁decí	-12.0946
▁secreta	-12.0946
cio	-12.0952
▁divid	-12.0966
▁app	-12.0979
ayer	-12.0981
compraste	-12.0981
▁vigila	-12.0981
mañana	-12.0981
▁empujó	-12.0985
aquí	-12.0985
▁ancho	-12.0989
ship	-12.0991
▁registr	-12.0992
0,	-12.0992
ándole	-12.1004
▁palma	-12.1007
▁bark	-12.1009
▁enamorados	-12.1009
▁yell	-12.101
▁ol	-12.1011
▁deliver	-12.1013
▁llovi	-12.1015
▁squeak	-12.1016
▁punish	-12.1017
▁destroy	-12.1017
▁basta	-12.1018
▁crawl	-12.1019
▁podr	-12.102
nna	-12.1023
▁bore	-12.1023
▁cheerful	-12.1024
▁ligera	-12.1027
▁inmediata	-12.1027
▁engaño	-12.1027
▁reciente	-12.1027
▁susurr	-12.1027
▁aparenta	-12.1028
▁orgullo	-12.1029
▁depart	-12.1029
▁thai	-12.103
▁muéstre	-12.103
▁smooth	-12.103
▁appropriate	-12.103
▁dáselo	-12.103
▁estricto	-12.103
▁estropeado	-12.103
▁financiera	-12.103
▁link	-12.103
▁traitor	-12.103
caño	-12.103
▁acknowledge	-12.103
▁almuerza	-12.103
▁awoke	-12.103
▁bathtub	-12.103
▁blouse	-12.103
▁bufanda	-12.103
▁chalk	-12.103
▁columbus	-12.103
▁cómete	-12.103
▁destiny	-12.103
▁diablo	-12.103
▁dieciséis	-12.103
▁divertimos	-12.103
▁estupidez	-12.103
▁febrero	-12.103
▁february	-12.103
▁fellow	-12.103
▁fluidamente	-12.103
▁graduó	-12.103
▁greece	-12.103
▁imágenes	-12.103
▁insecure	-12.103
▁intenciones	-12.103
▁literature	-12.103
▁locura	-12.103
▁lío	-12.103
▁marrón	-12.103
▁maíz	-12.103
▁movió	-12.103
▁positive	-12.103
▁revenge	-12.103
▁revolution	-12.103
▁ritmo	-12.103
▁récord	-12.103
▁sanguíneo	-12.103
▁spaghetti	-12.103
▁starving	-12.103
▁stiff	-12.103
▁tattoo	-12.103
▁telefónico	-12.103
▁trousers	-12.103
▁tunnel	-12.103
▁término	-12.103
▁undressing	-12.103
▁unpleasant	-12.103
▁victoria	-12.103
▁worries	-12.103
▁ópera	-12.103
▁berlin	-12.103
▁blusa	-12.103
▁perezoso	-12.103
▁jerk	-12.103
▁traidor	-12.103
▁arabic	-12.103
▁enojó	-12.103
▁fluidez	-12.103
▁valentin	-12.103
▁atractivo	-12.103
▁morder	-12.103
▁pausa	-12.103
▁prevenir	-12.103
▁propiedad	-12.103
▁temple	-12.103
▁performance	-12.103
▁zumo	-12.103
▁battery	-12.103
▁colón	-12.103
▁expresión	-12.103
▁oiga	-12.103
▁agenda	-12.103
▁sonrieron	-12.103
▁zero	-12.103
▁pecho	-12.103
▁necessity	-12.103
▁bañera	-12.103
▁cabaña	-12.103
▁comiera	-12.103
▁grecia	-12.103
▁túnel	-12.103
▁sorprendida	-12.103
▁construyeron	-12.103
▁supiste	-12.103
▁descubrí	-12.103
▁swimmer	-12.103
▁canasta	-12.103
▁creature	-12.103
▁aviso	-12.103
▁encontraba	-12.103
▁rompí	-12.103
▁reconozco	-12.103
▁fluido	-12.103
▁tropical	-12.103
▁déjanos	-12.103
▁cocinera	-12.103
▁generation	-12.103
▁complicada	-12.103
▁housework	-12.103
▁dining	-12.103
▁presentimiento	-12.103
▁backyard	-12.103
▁cavando	-12.103
▁deportivo	-12.103
▁pearl	-12.103
▁florero	-12.103
▁numerosa	-12.103
▁freezing	-12.1031
▁poderoso	-12.1031
▁ministro	-12.1031
▁respiración	-12.1031
▁pura	-12.1031
▁relajarme	-12.1031
▁retrasado	-12.1031
▁confiado	-12.1031
▁inherit	-12.1032
▁atropellado	-12.1032
▁aplaudió	-12.1032
▁soltó	-12.1032
▁ladrando	-12.1032
▁exploded	-12.1032
▁panic	-12.1032
▁baking	-12.1032
▁sentarnos	-12.1032
▁arriesgado	-12.1032
▁impresionante	-12.1032
▁pantalla	-12.1032
▁texas	-12.1032
▁vidrio	-12.1032
▁despidieron	-12.1032
▁joyas	-12.1032
▁invest	-12.1032
▁disculparme	-12.1033
▁rendirse	-12.1033
▁divirtió	-12.1033
▁proposed	-12.1033
▁arranged	-12.1033
▁nacier	-12.1033
▁impos	-12.1033
▁pronunciar	-12.1034
▁wow	-12.1034
▁háblame	-12.1034
▁checks	-12.1034
▁parezca	-12.1035
▁conditioner	-12.1035
▁directly	-12.1035
▁aceptable	-12.1035
▁bajé	-12.1035
▁atajo	-12.1035
▁personaje	-12.1036
▁justice	-12.1037
▁declaración	-12.1037
▁careless	-12.1038
▁volviste	-12.1038
▁traduce	-12.1038
▁remote	-12.1038
▁praised	-12.1038
▁severe	-12.1039
▁chased	-12.1039
▁regularly	-12.1039
▁trade	-12.104
▁trace	-12.104
▁discutimos	-12.1041
▁carrots	-12.1041
▁realizó	-12.1041
▁contenido	-12.1042
▁acostarme	-12.1042
▁cancelado	-12.1043
▁aprendemos	-12.1043
▁volunteered	-12.1043
▁waved	-12.1044
▁nave	-12.1044
▁novelista	-12.1044
▁póngase	-12.1044
▁click	-12.1045
▁sándwiches	-12.1045
▁correctamente	-12.1046
▁section	-12.1047
▁yelled	-12.1047
▁distracted	-12.1047
▁settled	-12.1048
▁folded	-12.1049
▁circunstancias	-12.1049
▁jewels	-12.1049
▁kilograms	-12.1049
▁zanahorias	-12.1049
▁suministros	-12.105
▁coughing	-12.105
▁mango	-12.105
▁boiled	-12.1051
van	-12.1051
▁matches	-12.1053
▁brilla	-12.1053
▁decorate	-12.1053
▁fortunate	-12.1053
▁quemé	-12.1055
▁ordené	-12.1055
▁jumping	-12.1056
▁sinking	-12.1056
▁insultó	-12.106
▁aclarar	-12.106
▁marco	-12.106
▁flea	-12.1062
▁relacion	-12.1062
▁pounds	-12.1062
▁fritas	-12.1062
▁dejando	-12.1063
▁besara	-12.1064
▁mudar	-12.1064
▁coca	-12.1064
▁fold	-12.1065
▁ruinas	-12.1065
▁ruidosa	-12.1068
ant	-12.1068
▁posiblemente	-12.1069
▁borrachos	-12.1072
▁polish	-12.1073
▁pensarlo	-12.1073
▁puertas	-12.1073
▁consequences	-12.1075
▁leftovers	-12.1075
▁resfriar	-12.1077
▁lleguemos	-12.1079
▁safely	-12.108
▁escucharlo	-12.1083
▁celebra	-12.1084
▁estante	-12.1086
▁pastillas	-12.1089
pon	-12.1095
done	-12.1099
▁lightly	-12.1099
▁postal	-12.1102
▁oíste	-12.1102
▁shortly	-12.1103
▁vegetarianos	-12.1103
fe	-12.1105
▁pluck	-12.1107
▁aid	-12.1107
ju	-12.1107
▁planeaba	-12.1107
▁cuidará	-12.1108
▁sudor	-12.1109
▁matarte	-12.1111
▁brakes	-12.1115
▁finales	-12.112
▁verás	-12.112
▁sab	-12.1124
lic	-12.1127
▁stirr	-12.1127
▁protesta	-12.1127
▁escase	-12.113
▁unido	-12.113
▁asco	-12.1134
▁veremos	-12.1134
ki	-12.1138
▁colgar	-12.1138
▁subí	-12.114
▁bee	-12.1145
▁pron	-12.1149
▁shows	-12.1151
▁spiders	-12.1154
▁teenagers	-12.1154
▁vegetarians	-12.1154
▁notes	-12.1155
▁manténga	-12.1158
▁sentences	-12.1161
▁include	-12.1167
▁pel	-12.1171
ors	-12.1176
▁tricks	-12.118
▁empezará	-12.118
▁quedarás	-12.1184
▁seco	-12.1188
▁llevarlo	-12.1189
▁confi	-12.1193
ense	-12.1194
cel	-12.1194
▁acuest	-12.1194
▁liberar	-12.1197
▁sincere	-12.1198
▁messages	-12.12
▁pacientes	-12.1201
▁constante	-12.1202
▁apesta	-12.1204
▁honesta	-12.1205
▁indicar	-12.1209
▁cepillar	-12.1215
ika	-12.1218
▁conozcas	-12.122
▁pot	-12.1227
▁leads	-12.1229
▁arañas	-12.1236
tica	-12.1245
▁ignora	-12.1251
stó	-12.1256
▁curtains	-12.126
▁customs	-12.126
▁hazme	-12.1261
yeron	-12.1276
▁fingí	-12.1276
aga	-12.1277
▁dejase	-12.1282
▁provoc	-12.1284
▁trabaje	-12.1287
▁ge	-12.1288
▁damas	-12.1288
▁celebrar	-12.1289
▁cherr	-12.1289
▁médicos	-12.1292
▁casamos	-12.1321
▁ponen	-12.1325
▁inusual	-12.1326
▁doctores	-12.1333
▁caras	-12.1339
ak	-12.1348
dad	-12.135
spite	-12.1352
▁lessons	-12.1353
▁confund	-12.1357
▁temor	-12.1377
▁antiguos	-12.138
▁hábitos	-12.138
▁funcionan	-12.1382
▁meetings	-12.1386
▁corr	-12.1387
arle	-12.14
▁volvía	-12.1409
rg	-12.1413
ísima	-12.1421
▁canto	-12.1427
sigues	-12.143
▁diseases	-12.1433
▁criar	-12.1435
▁deberá	-12.1443
▁hombros	-12.1447
▁grita	-12.1453
▁complains	-12.1465
▁alert	-12.147
aking	-12.1472
▁abras	-12.1472
▁comprendi	-12.1477
▁equivoca	-12.1487
▁lograr	-12.1504
▁felicit	-12.1506
▁sides	-12.1512
▁terremotos	-12.1514
▁interfer	-12.1535
tivo	-12.1535
▁vendrás	-12.154
▁enseñ	-12.1542
▁sl	-12.1551
▁earthquakes	-12.1555
zed	-12.1575
▁acompañ	-12.1576
▁corn	-12.1579
▁resolv	-12.1596
▁soltar	-12.1598
▁suyos	-12.1622
▁políticas	-12.1623
▁bonitos	-12.165
▁crea	-12.1675
▁groups	-12.1677
▁pagan	-12.1679
▁incluye	-12.1684
▁verdaderos	-12.1691
▁desat	-12.17
▁1,000	-12.1703
▁satisfechos	-12.1705
berg	-12.1706
▁soñado	-12.1706
debido	-12.171
▁bon	-12.1729
▁bolígrafos	-12.1732
▁cortas	-12.1735
▁entrega	-12.1741
illas	-12.1744
rry	-12.1746
▁andaba	-12.1752
come	-12.1753
▁junta	-12.1759
ui	-12.1763
▁apoya	-12.1774
▁enfada	-12.1774
cree	-12.1809
▁quedas	-12.1812
land	-12.1812
▁grupos	-12.1815
▁esperanzas	-12.1829
ches	-12.1834
▁fracasar	-12.1841
▁pinturas	-12.1843
▁produ	-12.1845
▁cru	-12.1847
cas	-12.1851
▁gum	-12.1852
cal	-12.1861
▁bra	-12.1866
▁unió	-12.1867
▁wrap	-12.1869
▁flecha	-12.1882
▁vegetarian	-12.1883
▁ensayo	-12.1885
▁navideña	-12.1886
▁score	-12.1886
iéramos	-12.1886
▁vitamin	-12.1886
day	-12.1887
▁effect	-12.1888
▁víctima	-12.1891
▁camello	-12.1891
▁monkey	-12.1892
▁casé	-12.1893
▁beginner	-12.1893
▁separado	-12.1894
▁spider	-12.1894
▁teenager	-12.1894
▁ballena	-12.1894
▁antique	-12.1895
▁engineer	-12.1895
▁adolescente	-12.1895
▁zapato	-12.1904
▁vitamina	-12.1905
preferirías	-12.1907
▁sobra	-12.191
▁grado	-12.1912
▁warning	-12.1913
▁dig	-12.1915
▁captur	-12.1919
▁sana	-12.1923
▁rebel	-12.1928
▁horn	-12.1929
▁estima	-12.1931
▁aterriz	-12.1934
tled	-12.1938
pressed	-12.1938
▁industria	-12.1944
▁moleste	-12.1947
▁limit	-12.1948
▁bloque	-12.1952
▁largos	-12.1967
ster	-12.1971
adora	-12.1972
entendiste	-12.1974
encontraste	-12.198
cerró	-12.1981
querría	-12.1981
nunca	-12.1981
siempre	-12.1981
thank	-12.1981
quiero	-12.1982
▁hablarte	-12.1986
dijo	-12.1989
▁marte	-12.2001
▁quejar	-12.2001
ció	-12.2004
▁verlos	-12.2006
itas	-12.2006
▁mc	-12.2006
ka	-12.2007
▁guarantee	-12.2013
▁shave	-12.2014
▁rechazar	-12.2014
▁fro	-12.2014
▁identif	-12.2015
ártelo	-12.2015
▁reserve	-12.2017
▁focus	-12.2017
▁chain	-12.2017
▁reveal	-12.2017
▁discover	-12.2017
stico	-12.2017
▁ascenso	-12.202
▁nacional	-12.2022
▁assemble	-12.2022
▁superfici	-12.2023
▁jugado	-12.2023
plica	-12.2024
▁unfortunate	-12.2025
▁revisa	-12.2026
▁hábil	-12.2026
▁tímida	-12.2027
▁measure	-12.2028
▁spy	-12.2029
▁natal	-12.2029
▁indulge	-12.2029
▁minister	-12.2029
ustria	-12.2029
▁diploma	-12.2029
▁disney	-12.2029
▁acumul	-12.203
▁aficionado	-12.203
▁agresivo	-12.203
▁alivio	-12.203
▁almacén	-12.203
▁amateur	-12.203
▁architect	-12.203
▁argentina	-12.203
▁arquitecto	-12.203
▁asqueroso	-12.203
▁attorney	-12.203
▁aviones	-12.203
▁barefoot	-12.203
▁blog	-12.203
▁bloom	-12.203
▁brazilian	-12.203
▁buzón	-12.203
▁cariño	-12.203
▁castaño	-12.203
▁catholic	-12.203
▁century	-12.203
▁champion	-12.203
▁chemical	-12.203
▁chopin	-12.203
▁cicatriz	-12.203
▁closing	-12.203
▁commercial	-12.203
▁conocida	-12.203
▁cordones	-12.203
▁curioso	-12.203
▁darwin	-12.203
▁declared	-12.203
▁desafortunado	-12.203
▁desafío	-12.203
▁dismissed	-12.203
▁encienda	-12.203
▁engagement	-12.203
▁envidia	-12.203
▁envidio	-12.203
▁estacionamiento	-12.203
▁etiqueta	-12.203
▁female	-12.203
▁filosofía	-12.203
▁fotógrafo	-12.203
▁gambling	-12.203
▁generoso	-12.203
▁globo	-12.203
▁grandparents	-12.203
▁hangover	-12.203
▁hurricane	-12.203
▁improving	-12.203
▁inteligencia	-12.203
▁interview	-12.203
▁kanji	-12.203
▁laguna	-12.203
▁laundry	-12.203
▁lógica	-12.203
▁malgaste	-12.203
▁mischievous	-12.203
▁monroe	-12.203
▁niñito	-12.203
▁november	-12.203
▁okinawa	-12.203
▁omelet	-12.203
▁overcoat	-12.203
▁oysters	-12.203
▁pacific	-12.203
▁physical	-12.203
▁plástico	-12.203
▁rastro	-12.203
▁refund	-12.203
▁reproductor	-12.203
▁resaca	-12.203
▁response	-12.203
▁sapporo	-12.203
▁scotland	-12.203
▁semestre	-12.203
▁shinjuku	-12.203
▁shoelaces	-12.203
▁splash	-12.203
▁sueltes	-12.203
▁thunder	-12.203
▁tractor	-12.203
▁travieso	-12.203
▁unmarried	-12.203
▁victory	-12.203
▁whining	-12.203
▁zealand	-12.203
▁zelanda	-12.203
▁alternative	-12.203
▁august	-12.203
▁broad	-12.203
▁niego	-12.203
▁shade	-12.203
▁contagious	-12.203
▁escocia	-12.203
▁napole	-12.203
▁paranoico	-12.203
▁plazo	-12.203
▁promoted	-12.203
▁revolución	-12.203
▁entrevista	-12.203
▁escríbeme	-12.203
▁hágame	-12.203
▁identical	-12.203
▁patético	-12.203
▁camarero	-12.203
▁identidad	-12.203
▁receta	-12.203
▁paranoid	-12.203
▁templo	-12.203
▁abriera	-12.203
▁admission	-12.203
▁claridad	-12.203
▁excursión	-12.203
▁plaza	-12.203
▁agrado	-12.203
▁equipment	-12.203
▁recipe	-12.203
▁typewriter	-12.203
▁biwa	-12.203
▁slavery	-12.203
babies	-12.203
▁grandpa	-12.203
▁fax	-12.203
▁asocia	-12.203
▁gorra	-12.203
▁mailbox	-12.203
▁strawberries	-12.203
▁entendieron	-12.203
▁malgasta	-12.203
▁mentirosa	-12.203
▁western	-12.203
▁rabia	-12.203
▁software	-12.203
▁defendant	-12.203
▁espada	-12.203
▁espía	-12.203
▁pruébate	-12.203
▁relief	-12.203
▁combine	-12.203
▁aliviado	-12.203
▁merezco	-12.203
▁sympathy	-12.203
▁flush	-12.203
▁nevada	-12.203
▁engordado	-12.203
▁liberty	-12.203
▁sintieron	-12.203
▁sufriendo	-12.203
▁assist	-12.203
▁fascinated	-12.203
▁mask	-12.203
▁tumor	-12.203
▁huir	-12.203
▁privada	-12.203
▁majority	-12.203
▁sediento	-12.203
▁expression	-12.203
▁billion	-12.203
▁simply	-12.203
▁surgeon	-12.203
▁chef	-12.203
▁campus	-12.203
▁pub	-12.203
▁factura	-12.203
▁ladies	-12.203
▁siéntese	-12.203
▁estudie	-12.203
▁ceremonia	-12.203
▁shovel	-12.203
▁whispered	-12.203
▁crew	-12.203
▁sentencia	-12.203
▁genuine	-12.203
▁baje	-12.203
▁venture	-12.203
▁onions	-12.203
▁obligación	-12.203
▁humiliated	-12.203
▁venganza	-12.203
▁sostenía	-12.2031
▁chatting	-12.2031
▁descuento	-12.2031
▁existencia	-12.2031
▁marina	-12.2031
▁curry	-12.2031
▁frequently	-12.2031
▁accidentally	-12.2031
▁personalidad	-12.2032
▁applauded	-12.2032
▁sentémonos	-12.2032
▁turquía	-12.2032
▁terrified	-12.2032
▁observó	-12.2032
▁adquir	-12.2032
▁balloon	-12.2032
▁sobrevivieron	-12.2032
▁tirado	-12.2032
tazo	-12.2032
▁photographer	-12.2032
▁ilusión	-12.2033
▁apresúrate	-12.2033
▁cállate	-12.2033
▁sixteen	-12.2033
▁grites	-12.2033
▁symbol	-12.2033
▁chest	-12.2033
▁portuguese	-12.2033
▁eché	-12.2033
▁asustó	-12.2033
▁discovery	-12.2033
▁pico	-12.2033
▁ordenada	-12.2033
▁occupied	-12.2033
▁observe	-12.2033
▁hook	-12.2034
▁wandered	-12.2034
▁tomatoes	-12.2034
▁perdonado	-12.2034
▁severely	-12.2034
▁mudarse	-12.2035
▁gallo	-12.2035
▁cuidadosa	-12.2035
▁preguntes	-12.2035
▁pegado	-12.2035
▁entendemos	-12.2035
▁connected	-12.2036
▁nevará	-12.2036
▁suavemente	-12.2036
▁entusiasmado	-12.2036
▁sintiendo	-12.2036
▁olla	-12.2036
▁familiarizado	-12.2037
▁ocurrirá	-12.2037
▁giró	-12.2037
▁impacto	-12.2037
▁tortured	-12.2038
▁animó	-12.2038
▁turtles	-12.2038
▁muerde	-12.2038
▁niega	-12.2038
▁pintando	-12.2038
▁gradual	-12.2038
▁offended	-12.2038
▁tiza	-12.2038
▁invitaste	-12.2039
▁muchísima	-12.2039
▁recado	-12.2039
▁gano	-12.204
▁contributed	-12.204
▁atravesar	-12.2041
▁habilidades	-12.2042
▁revealed	-12.2042
▁struggled	-12.2042
▁traditional	-12.2042
tendrás	-12.2042
▁leyera	-12.2043
▁angeles	-12.2043
▁utter	-12.2043
▁situa	-12.2043
▁chewing	-12.2044
▁fracasó	-12.2044
▁guardado	-12.2044
▁adventure	-12.2045
▁escaparon	-12.2045
▁negotiate	-12.2045
▁shaved	-12.2045
▁created	-12.2045
▁entrado	-12.2046
▁slightly	-12.2046
▁molestarte	-12.2046
▁despedirme	-12.2046
▁señales	-12.2046
▁hopeless	-12.2046
▁risky	-12.2047
▁lastimarte	-12.2048
▁demora	-12.2048
▁rellenar	-12.2049
▁tightly	-12.2049
▁worker	-12.2049
▁adivinar	-12.205
▁portón	-12.205
▁dí	-12.2051
▁cenó	-12.2051
▁tortugas	-12.2052
▁jesus	-12.2052
▁pidiera	-12.2052
▁acordarme	-12.2053
ham	-12.2053
▁interrupting	-12.2054
▁hesitated	-12.2055
▁registro	-12.2055
▁dinos	-12.2055
▁explicaré	-12.2059
▁parks	-12.206
▁útiles	-12.2061
▁rompa	-12.2062
▁comparte	-12.2063
▁preguntarme	-12.2063
▁acerques	-12.2066
▁considerada	-12.2067
▁necesité	-12.2067
▁desmayar	-12.2068
▁culparte	-12.207
▁acceptable	-12.2071
▁tank	-12.2071
▁ordenadores	-12.2072
▁correctly	-12.2074
▁prender	-12.2077
▁pino	-12.2077
▁agente	-12.2078
▁abrazar	-12.2079
▁arrestó	-12.2085
rain	-12.2085
▁ratas	-12.2085
▁dilo	-12.2085
▁georg	-12.2085
▁atrev	-12.2089
▁completed	-12.2091
▁reca	-12.2094
▁cantado	-12.2095
▁frutos	-12.2095
▁capa	-12.2097
▁fuertemente	-12.2098
▁corría	-12.2103
▁corredor	-12.2104
▁eligier	-12.2108
▁huesos	-12.2109
▁mejorado	-12.211
▁frenos	-12.2113
▁arruinar	-12.2113
▁respected	-12.2114
▁muevas	-12.2123
▁huellas	-12.2124
▁remarks	-12.2125
▁uniforms	-12.2126
▁mueren	-12.2127
▁nicer	-12.2129
▁delete	-12.2134
▁encantaba	-12.2136
▁pizzas	-12.2137
▁apuros	-12.2139
▁discute	-12.214
▁ignor	-12.2143
▁hablaste	-12.2148
uela	-12.2151
▁insulto	-12.2153
▁pensás	-12.2155
▁doors	-12.2155
▁laws	-12.2156
▁smiles	-12.2168
▁beginners	-12.2168
▁separados	-12.2168
▁owed	-12.2172
▁coman	-12.2176
▁catching	-12.2177
▁equivocas	-12.2178
▁contentos	-12.2182
▁buscado	-12.2184
▁manga	-12.2191
▁robots	-12.2197
rk	-12.2197
▁amamos	-12.2198
ger	-12.2201
▁relatives	-12.2203
▁esperen	-12.2203
▁nota	-12.2208
▁rayos	-12.2212
ncé	-12.2217
wa	-12.2227
telo	-12.2229
▁telephoned	-12.2232
rió	-12.2233
are	-12.2238
▁aguarda	-12.2239
▁delito	-12.224
▁cambies	-12.2241
▁adopta	-12.2241
▁duermen	-12.2249
▁policías	-12.2252
▁visito	-12.2256
▁drain	-12.2261
▁esperad	-12.2262
▁sneeze	-12.227
▁transfer	-12.2272
▁rats	-12.2283
▁divorciar	-12.229
▁traslad	-12.2301
▁pedía	-12.2308
▁opinions	-12.2309
▁mejillas	-12.2315
▁deudas	-12.2315
▁imagina	-12.2319
▁twist	-12.2326
ments	-12.2331
▁ways	-12.2332
▁pararon	-12.2341
▁directions	-12.2344
▁escalado	-12.2358
▁cheeks	-12.2374
▁empeora	-12.2376
▁hablaron	-12.2376
▁seconds	-12.238
▁cerdos	-12.2389
▁oculta	-12.2389
ie	-12.2391
▁oídos	-12.2395
▁guarde	-12.24
▁taxis	-12.2401
▁mist	-12.2405
▁sow	-12.2423
ating	-12.2432
ring	-12.2436
▁caros	-12.2459
ador	-12.2465
▁billetes	-12.2478
zca	-12.2479
▁verse	-12.2481
▁estúpidos	-12.2481
▁ladrar	-12.2485
▁rat	-12.2503
▁servicios	-12.2509
▁ventas	-12.2509
▁celebr	-12.2529
arlo	-12.2533
▁tomate	-12.2534
▁loses	-12.2537
▁derrota	-12.2537
▁encogió	-12.2538
▁objetivos	-12.2539
▁interfere	-12.2542
▁entren	-12.2542
▁event	-12.2544
▁reforma	-12.2552
can	-12.2556
ándolo	-12.2556
▁shirts	-12.2568
▁vacías	-12.2569
▁absorb	-12.2571
▁curar	-12.2575
▁conserva	-12.2602
▁exprimi	-12.2613
shed	-12.2615
▁sweets	-12.2628
▁conduces	-12.2629
▁aprenda	-12.263
ponlo	-12.2638
▁cer	-12.2645
▁stifle	-12.2649
▁dividi	-12.2651
▁estudiara	-12.2662
▁acts	-12.2664
▁vet	-12.2684
nme	-12.269
eth	-12.2699
▁fiestas	-12.2709
hanging	-12.2718
▁critic	-12.2725
▁líneas	-12.2736
▁bodas	-12.2736
▁hab	-12.2738
▁agarra	-12.2764
▁ricas	-12.2766
▁incendios	-12.2766
▁equivocados	-12.2775
car	-12.2778
10,000	-12.2785
▁modera	-12.2788
▁notable	-12.2795
dicated	-12.2818
▁sue	-12.2818
fic	-12.2849
arios	-12.2852
▁breaks	-12.2854
▁triunf	-12.2855
osa	-12.2864
▁orbit	-12.288
hoy	-12.2891
dores	-12.2911
proxima	-12.2912
▁leas	-12.2917
▁cur	-12.2931
▁aburre	-12.2946
▁escuche	-12.2955
conoce	-12.296
tendió	-12.2963
▁respects	-12.297
▁ci	-12.2971
read	-12.2973
▁conclusion	-12.2985
eando	-12.2987
▁paisaje	-12.2993
▁nieto	-12.2993
▁cubo	-12.2993
▁inglesa	-12.2997
▁candidato	-12.2997
▁mosca	-12.2997
▁ingeniero	-12.2999
▁vehículo	-12.2999
▁oveja	-12.2999
▁abeja	-12.3001
▁affair	-12.3003
todo	-12.3005
▁cloud	-12.3005
▁plátano	-12.3005
▁masa	-12.3006
▁pierda	-12.3007
▁supplie	-12.3007
▁degree	-12.3008
▁ingreso	-12.3009
▁customer	-12.3009
▁vegetable	-12.301
▁z	-12.3016
▁grade	-12.3018
▁element	-12.3018
▁elbow	-12.3022
liz	-12.3023
▁postul	-12.3026
ders	-12.3027
▁diente	-12.3036
▁incorrect	-12.3037
▁trueno	-12.3046
▁má	-12.3047
▁cepilla	-12.3048
▁nervios	-12.3048
nged	-12.3052
▁relativ	-12.3064
▁australian	-12.3065
resisti	-12.3072
▁traig	-12.308
▁crow	-12.3081
▁asegura	-12.3083
▁toast	-12.3089
terminaste	-12.3089
entonces	-12.3092
quisiera	-12.3092
▁fuel	-12.3094
▁cared	-12.3096
▁pague	-12.3097
made	-12.3098
▁hablará	-12.3099
buen	-12.31
entiendes	-12.31
estudias	-12.3101
fue	-12.3102
▁item	-12.3102
cola	-12.3102
may	-12.3103
▁camel	-12.3104
▁driven	-12.3108
seguimos	-12.3113
▁maní	-12.3115
▁horizon	-12.3118
▁afecta	-12.3119
▁enti	-12.3123
▁recover	-12.3125
▁detén	-12.3125
▁congratulate	-12.3125
▁dye	-12.3125
▁confuse	-12.3128
▁impact	-12.3129
▁prohíb	-12.3131
▁valid	-12.3132
▁comunicar	-12.3132
▁fabrica	-12.3133
▁branch	-12.3133
▁cazador	-12.3133
▁hog	-12.3133
▁artificial	-12.3134
▁immediate	-12.3136
▁invita	-12.3137
recieron	-12.3137
▁mastica	-12.3137
árselo	-12.3138
▁threat	-12.3138
▁carbon	-12.3139
▁cigar	-12.3139
▁compose	-12.314
▁averig	-12.314
▁inclina	-12.314
▁pulse	-12.314
▁process	-12.314
▁occur	-12.314
▁slip	-12.314
▁proverb	-12.314
▁cuelg	-12.3141
▁appeal	-12.3141
▁compliment	-12.3141
▁exaggerate	-12.3141
▁feroz	-12.3141
▁injusta	-12.3141
▁siblings	-12.3141
▁afterwards	-12.3141
▁ahorita	-12.3141
▁amistoso	-12.3141
▁aprobación	-12.3141
▁arbusto	-12.3141
▁asignatura	-12.3141
▁atómica	-12.3141
▁autobuses	-12.3141
▁awkward	-12.3141
▁baboon	-12.3141
▁bancarrota	-12.3141
▁berlín	-12.3141
▁cajero	-12.3141
▁campamento	-12.3141
▁carácter	-12.3141
▁ceremony	-12.3141
▁cerezo	-12.3141
▁chimney	-12.3141
▁cliff	-12.3141
▁clumsy	-12.3141
▁comience	-12.3141
▁comunicación	-12.3141
▁concierne	-12.3141
▁confesar	-12.3141
▁demonio	-12.3141
▁desconozco	-12.3141
▁destination	-12.3141
▁dumped	-12.3141
▁elderly	-12.3141
▁equilibrio	-12.3141
▁erigi	-12.3141
▁escándalo	-12.3141
▁espagueti	-12.3141
▁estadística	-12.3141
▁expose	-12.3141
▁extent	-12.3141
▁flauta	-12.3141
▁garlic	-12.3141
▁gossip	-12.3141
▁grammatical	-12.3141
▁idéntico	-12.3141
▁incumbe	-12.3141
▁insensitive	-12.3141
▁intelligence	-12.3141
▁intervened	-12.3141
▁journey	-12.3141
▁kyushu	-12.3141
▁magnífica	-12.3141
▁malvado	-12.3141
▁maquillaje	-12.3141
▁misunderstood	-12.3141
▁mysterious	-12.3141
▁negative	-12.3141
▁nephew	-12.3141
▁niñez	-12.3141
▁opponent	-12.3141
▁overweight	-12.3141
▁peluquería	-12.3141
▁platform	-12.3141
▁pollution	-12.3141
▁postcard	-12.3141
▁privacy	-12.3141
▁propina	-12.3141
▁pruebe	-12.3141
▁práctico	-12.3141
▁pulso	-12.3141
▁póquer	-12.3141
▁quebró	-12.3141
▁satisfactory	-12.3141
▁seatbelt	-12.3141
▁shadow	-12.3141
▁sobrino	-12.3141
▁solitario	-12.3141
▁spinach	-12.3141
▁statistic	-12.3141
▁suegra	-12.3141
▁swept	-12.3141
▁símbolo	-12.3141
▁tatuaje	-12.3141
▁thieves	-12.3141
▁tobillo	-12.3141
▁translator	-12.3141
▁tropas	-12.3141
▁universitaria	-12.3141
▁votó	-12.3141
▁válido	-12.3141
▁workaholic	-12.3141
▁agricultura	-12.3141
▁cease	-12.3141
▁conservative	-12.3141
▁elegí	-12.3141
▁hierve	-12.3141
▁pareciera	-12.3141
▁pediste	-12.3141
▁prosper	-12.3141
▁shelter	-12.3141
▁sneak	-12.3141
▁biology	-12.3141
▁biología	-12.3141
▁cinta	-12.3141
▁manteca	-12.3141
▁parecida	-12.3141
▁profundidad	-12.3141
▁shortcut	-12.3141
▁ankle	-12.3141
▁bride	-12.3141
▁snack	-12.3141
▁cerradura	-12.3141
▁crítica	-12.3141
▁muriera	-12.3141
▁ostras	-12.3141
▁toothache	-12.3141
▁pateó	-12.3141
▁democratic	-12.3141
▁diversión	-12.3141
▁eternidad	-12.3141
▁intervino	-12.3141
▁kingdom	-12.3141
▁qualified	-12.3141
▁semester	-12.3141
▁trial	-12.3141
firiendo	-12.3141
▁thread	-12.3141
▁heaven	-12.3141
▁organization	-12.3141
▁bunk	-12.3141
▁clapped	-12.3141
▁profit	-12.3141
▁yawn	-12.3141
▁cayeron	-12.3141
▁organización	-12.3141
▁mentiste	-12.3141
▁unsure	-12.3141
▁guitarist	-12.3141
▁perrito	-12.3141
▁philosophy	-12.3141
▁snore	-12.3141
▁banjo	-12.3141
▁loyal	-12.3141
▁llévate	-12.3141
▁generación	-12.3141
▁asiáticos	-12.3141
▁desesperado	-12.3141
▁cueste	-12.3141
▁beef	-12.3141
▁seafood	-12.3141
ogen	-12.3141
▁direcciones	-12.3141
▁perdóname	-12.3141
▁recibe	-12.3141
▁respondido	-12.3141
▁lloro	-12.3141
▁shaking	-12.3141
▁corregi	-12.3141
▁abrazó	-12.3141
▁download	-12.3141
▁gentle	-12.3141
▁hervir	-12.3141
▁heavier	-12.3141
▁colgando	-12.3141
▁esquiando	-12.3141
▁atleta	-12.3141
▁roca	-12.3141
▁hiking	-12.3141
▁redacción	-12.3141
▁numero	-12.3141
▁devastated	-12.3141
▁descubrimiento	-12.3142
▁dolía	-12.3142
▁tornillo	-12.3142
▁permitted	-12.3142
▁dibujó	-12.3142
▁cattle	-12.3142
▁statement	-12.3142
▁depriv	-12.3142
▁obligation	-12.3142
▁recto	-12.3142
▁mojada	-12.3142
▁reluctantly	-12.3142
▁esencial	-12.3142
▁meditando	-12.3142
▁azar	-12.3142
▁interese	-12.3142
▁conclusión	-12.3142
▁trasero	-12.3142
▁doloroso	-12.3143
▁reparado	-12.3143
▁seventy	-12.3143
▁temblaba	-12.3143
▁stingy	-12.3143
▁realista	-12.3143
▁amarga	-12.3143
▁tercio	-12.3143
▁hometown	-12.3143
▁consideration	-12.3143
▁revelar	-12.3143
▁disgustado	-12.3143
▁rapidly	-12.3143
▁gritando	-12.3143
▁levántate	-12.3143
▁sacaste	-12.3143
▁doubtful	-12.3144
▁fiable	-12.3144
▁capturado	-12.3144
▁disculparse	-12.3144
▁costoso	-12.3144
▁choque	-12.3144
▁blank	-12.3144
▁cirujano	-12.3144
▁continúe	-12.3144
▁jesús	-12.3144
▁cachorro	-12.3144
▁aferr	-12.3144
▁ahogarse	-12.3144
▁patada	-12.3145
▁roy	-12.3145
▁llamá	-12.3145
▁calentador	-12.3145
▁descalzo	-12.3145
▁darkness	-12.3145
▁afilado	-12.3145
▁defensa	-12.3145
▁melod	-12.3146
▁established	-12.3146
▁atasco	-12.3146
▁tumbado	-12.3146
▁slower	-12.3146
▁approaching	-12.3147
▁comprando	-12.3147
▁bombarde	-12.3147
▁mortal	-12.3148
▁taxista	-12.3148
▁theirs	-12.3148
▁regañó	-12.3148
▁regularmente	-12.3148
▁derrotado	-12.3148
▁suene	-12.3149
▁divertirse	-12.3149
▁moments	-12.3149
▁former	-12.3149
▁misled	-12.3149
▁deprisa	-12.3149
▁pulga	-12.315
▁fíj	-12.315
▁objection	-12.315
▁carbono	-12.315
▁pole	-12.315
▁arreglado	-12.315
▁horizonte	-12.3151
▁amused	-12.3151
▁alejado	-12.3151
▁culparía	-12.3151
▁empe	-12.3151
▁load	-12.3152
▁stunning	-12.3152
▁regresará	-12.3152
▁spoiled	-12.3152
▁apagado	-12.3152
▁ahogó	-12.3152
▁sentate	-12.3152
▁lavado	-12.3153
▁mow	-12.3154
▁parecé	-12.3154
▁dibujar	-12.3155
▁politely	-12.3155
▁associate	-12.3156
▁vámonos	-12.3156
▁besaron	-12.3156
▁melted	-12.3156
▁confirmed	-12.3156
▁delivered	-12.3156
▁apagaron	-12.3156
▁levantaron	-12.3157
▁alegrará	-12.3157
▁devolveré	-12.3157
▁buscamos	-12.3158
▁enseñado	-12.3158
▁perform	-12.3158
term	-12.3159
▁brillaba	-12.3159
▁soportarlo	-12.3159
▁youngest	-12.316
▁pese	-12.3161
▁necesitás	-12.3162
▁criminales	-12.3162
▁disgusted	-12.3162
▁celosa	-12.3162
▁blowing	-12.3163
▁filete	-12.3164
▁colgado	-12.3164
▁rendir	-12.3164
clined	-12.3164
▁refieres	-12.3165
▁patatas	-12.3166
▁mago	-12.3166
▁regrets	-12.3166
▁considerable	-12.3168
▁vía	-12.3169
▁satisfactoria	-12.3169
▁culpando	-12.317
▁posibilidades	-12.317
▁referr	-12.3171
▁athlete	-12.3174
▁sec	-12.3174
▁principales	-12.3174
▁examined	-12.3175
▁copies	-12.3177
▁criticize	-12.3179
▁exacta	-12.318
▁señaló	-12.318
▁tubo	-12.3181
▁marineros	-12.3182
▁sailors	-12.3182
▁escondidas	-12.3182
▁ruidoso	-12.3182
▁aliviar	-12.3183
▁cerré	-12.3184
▁calmado	-12.3184
▁organized	-12.3185
▁amaré	-12.3187
▁paré	-12.3188
▁errónea	-12.319
▁gire	-12.3191
▁qu	-12.3191
▁menores	-12.3191
▁tame	-12.3191
▁pagaron	-12.3192
▁responda	-12.3195
cimiento	-12.3195
▁prestarme	-12.3195
▁terminaste	-12.3196
▁responded	-12.3197
▁patiently	-12.3198
▁palomas	-12.3198
▁eve	-12.3199
▁interrumpas	-12.3199
▁terminaron	-12.3202
▁tooth	-12.3202
▁cruce	-12.3206
▁atrae	-12.3206
▁cambiaré	-12.3206
▁differently	-12.3207
▁seguiré	-12.3209
▁mantendrá	-12.3215
▁creerle	-12.3215
▁descubre	-12.3218
▁bebas	-12.3218
▁permanece	-12.322
▁meditar	-12.3221
▁mag	-12.3222
▁tool	-12.3223
▁discussing	-12.3223
▁distraer	-12.3224
enzo	-12.3226
▁aceptaría	-12.3227
▁clon	-12.323
▁congelado	-12.3233
▁mienten	-12.3235
▁mates	-12.3237
ong	-12.3238
▁jugaban	-12.3241
▁acababa	-12.3247
▁weeds	-12.3248
▁costear	-12.3254
▁landing	-12.3254
▁wa	-12.3255
▁vuelves	-12.3265
▁voices	-12.3266
▁rec	-12.3266
▁escribirle	-12.3272
▁affairs	-12.328
▁hitch	-12.3288
▁sip	-12.329
▁vision	-12.329
▁alter	-12.3291
▁visitarte	-12.3293
▁coja	-12.3293
▁monkeys	-12.3296
▁vitamins	-12.3296
▁heating	-12.3297
▁antiques	-12.3297
▁vitaminas	-12.3298
▁torn	-12.3299
fundió	-12.3311
▁decís	-12.3312
▁granjeros	-12.3313
▁trucos	-12.3313
▁provocar	-12.3318
irió	-12.3321
▁sheets	-12.3329
▁sacrifice	-12.333
▁exceptional	-12.3331
▁usamos	-12.3331
▁weighs	-12.3331
▁pork	-12.3337
▁mall	-12.3338
▁ja	-12.3338
criado	-12.3342
▁hablen	-12.3347
▁sentirá	-12.3352
▁indian	-12.3352
▁dejarme	-12.3352
▁logra	-12.3352
▁du	-12.3357
▁principiantes	-12.3362
▁farmers	-12.3363
000	-12.3364
nada	-12.3366
▁voluntarios	-12.338
▁sumo	-12.3382
cked	-12.3386
▁arresto	-12.3391
▁acos	-12.3396
▁consultar	-12.3405
▁recog	-12.3405
▁ban	-12.3406
▁doctora	-12.3419
▁cobra	-12.3425
▁fingir	-12.3425
▁oyes	-12.3444
▁ruins	-12.3446
▁youth	-12.3452
▁cómodos	-12.3454
ates	-12.3458
▁partidos	-12.3458
▁enamor	-12.346
▁gallinas	-12.3462
▁medicamentos	-12.3462
▁sordos	-12.3462
▁cabras	-12.3462
▁recoge	-12.3465
istic	-12.3475
▁plates	-12.3478
▁files	-12.3479
▁demands	-12.3483
▁freed	-12.3484
▁apresurar	-12.3489
▁weekends	-12.349
▁ayudamos	-12.3495
▁imports	-12.3502
▁infla	-12.3513
▁classic	-12.3516
▁harán	-12.3516
▁imitate	-12.3528
omo	-12.353
▁alquila	-12.3531
▁tanque	-12.3536
ities	-12.3555
▁peligrosos	-12.3556
▁tomates	-12.3562
▁expresa	-12.3565
▁criminals	-12.3579
▁suficientes	-12.3591
▁garantiza	-12.3593
▁represent	-12.3597
parked	-12.3613
▁arregle	-12.3623
▁owned	-12.3625
▁ubica	-12.3628
▁hoyo	-12.363
▁boletos	-12.363
▁estabais	-12.3632
▁vendrías	-12.3634
tus	-12.364
portable	-12.3651
▁inventar	-12.3651
▁despiérta	-12.366
▁remembering	-12.3679
▁ésas	-12.368
▁afortunados	-12.368
▁intentions	-12.3681
▁sucedier	-12.3686
▁cercanos	-12.3689
▁bienvenidos	-12.3697
ko	-12.37
▁demandar	-12.3703
▁absorbe	-12.3709
▁vari	-12.3715
▁mirad	-12.3717
▁troubles	-12.3721
melo	-12.3722
line	-12.3734
▁remembers	-12.3758
ú	-12.3759
▁reform	-12.3766
▁costo	-12.3766
▁cuidadosos	-12.3767
if	-12.3771
▁skirts	-12.3771
cé	-12.3775
▁copias	-12.378
▁dormidos	-12.3784
▁muñecas	-12.38
pó	-12.3805
▁acusa	-12.381
▁mars	-12.3811
▁camisas	-12.3817
▁gradua	-12.3841
▁borr	-12.3849
▁cas	-12.3854
▁bites	-12.3858
▁arriesg	-12.386
▁pertene	-12.387
marily	-12.3877
▁castigar	-12.389
▁pegar	-12.3895
▁idiots	-12.3905
▁sigues	-12.3907
▁aves	-12.3927
▁esperas	-12.3927
▁humans	-12.3945
▁admite	-12.3947
▁proporcionar	-12.3956
▁recomiend	-12.3957
▁limpie	-12.3958
▁oscurecie	-12.3968
▁reconsider	-12.3978
▁burlar	-12.3995
▁gr	-12.3999
▁frases	-12.4008
▁pele	-12.4027
▁vibra	-12.4034
▁levantas	-12.4035
▁travels	-12.4046
▁irás	-12.4053
▁comprendí	-12.4057
▁aterriza	-12.406
▁puntos	-12.4063
ix	-12.4072
▁fare	-12.4073
▁urge	-12.4083
ático	-12.4093
▁elevado	-12.413
▁reparti	-12.4143
talo	-12.4152
quis	-12.416
deja	-12.4184
vendrá	-12.4204
▁pela	-12.4225
▁transmit	-12.4232
▁cheer	-12.4234
▁neumático	-12.4243
▁investment	-12.4243
▁arruinado	-12.4245
▁castigado	-12.4246
rolled	-12.4247
▁movimiento	-12.4247
▁valioso	-12.4247
▁avance	-12.4247
▁distinto	-12.4247
▁cristiano	-12.4249
▁string	-12.425
▁blonde	-12.425
▁christian	-12.4251
▁mascota	-12.4251
▁disparo	-12.4253
▁apuro	-12.4254
▁oreja	-12.4258
▁consecuencia	-12.4259
▁wire	-12.4259
▁verdura	-12.4259
▁pista	-12.4259
▁nube	-12.426
▁sock	-12.426
▁impress	-12.4261
rected	-12.4262
▁codo	-12.4267
▁pregunt	-12.4279
▁jog	-12.4279
▁docena	-12.4281
▁congela	-12.4281
omas	-12.429
▁moderno	-12.4293
illo	-12.4293
▁aprueb	-12.4298
▁invento	-12.4301
espera	-12.4301
▁aprovech	-12.4302
▁creci	-12.4302
▁adelanta	-12.4316
▁reuni	-12.4319
orge	-12.4329
▁magnet	-12.4334
▁parara	-12.434
debo	-12.434
confident	-12.4341
alguno	-12.4341
déjame	-12.4342
who	-12.4343
rro	-12.4343
▁agent	-12.4343
pasas	-12.4346
▁combina	-12.4348
hola	-12.4349
10.	-12.435
voy	-12.4354
▁receiv	-12.4354
mbled	-12.4355
▁racist	-12.4362
▁rin	-12.4367
▁annoy	-12.4368
bamos	-12.4371
▁agradecer	-12.4371
▁aparece	-12.4372
▁compete	-12.4374
▁concentr	-12.4374
▁deceive	-12.4375
rich	-12.4376
estamos	-12.4377
▁swallow	-12.4377
▁spoil	-12.4378
▁regar	-12.4378
▁betray	-12.4379
▁cabin	-12.438
▁coast	-12.4382
▁modest	-12.4383
▁chaval	-12.4384
▁implica	-12.4384
▁neat	-12.4385
▁accu	-12.4386
▁compani	-12.4386
▁gene	-12.4386
▁plena	-12.4388
▁numb	-12.4388
▁freak	-12.4389
▁salvado	-12.4389
dney	-12.439
▁sharpen	-12.439
oru	-12.439
▁vietnam	-12.439
▁inferior	-12.439
▁knit	-12.439
▁dinosaur	-12.439
▁react	-12.439
▁tendenc	-12.4391
▁contigu	-12.4391
▁neglect	-12.4391
▁cacahu	-12.4391
▁diplomática	-12.4391
▁exhilarat	-12.4391
▁fractur	-12.4391
▁hydr	-12.4391
▁impresionar	-12.4391
▁penicil	-12.4391
▁préstame	-12.4391
▁ridícula	-12.4391
▁tobacco	-12.4391
▁tromb	-12.4391
▁aburrimiento	-12.4391
▁alemanes	-12.4391
▁almorcé	-12.4391
▁amistosa	-12.4391
▁arrancó	-12.4391
▁atascado	-12.4391
▁attentive	-12.4391
▁beethoven	-12.4391
▁bikini	-12.4391
▁blunt	-12.4391
▁cadáver	-12.4391
▁cafeteria	-12.4391
▁calcetín	-12.4391
▁camiseta	-12.4391
▁cementerio	-12.4391
▁champú	-12.4391
▁chatarra	-12.4391
▁cintura	-12.4391
▁comprueb	-12.4391
▁conversando	-12.4391
▁cotton	-12.4391
▁crítico	-12.4391
▁cycling	-12.4391
▁december	-12.4391
▁departure	-12.4391
▁descartar	-12.4391
▁desnuda	-12.4391
▁despistado	-12.4391
▁destruida	-12.4391
▁diciembre	-12.4391
▁doorknob	-12.4391
▁dutch	-12.4391
▁ecuador	-12.4391
▁einstein	-12.4391
▁enormous	-12.4391
▁esclavitud	-12.4391
▁escuchá	-12.4391
▁flies	-12.4391
▁forbidden	-12.4391
▁francamente	-12.4391
▁gloomy	-12.4391
▁gramatical	-12.4391
▁guiso	-12.4391
▁haunted	-12.4391
▁hobbies	-12.4391
▁incurable	-12.4391
▁industry	-12.4391
▁irresponsable	-12.4391
▁jarrón	-12.4391
▁jueves	-12.4391
▁juventud	-12.4391
▁lipstick	-12.4391
▁lloré	-12.4391
▁llovía	-12.4391
▁madrid	-12.4391
▁mariposa	-12.4391
▁monedero	-12.4391
▁monster	-12.4391
▁monstruo	-12.4391
▁muelle	-12.4391
▁muñeco	-12.4391
▁nagano	-12.4391
▁nagoya	-12.4391
▁naughty	-12.4391
▁negativo	-12.4391
▁nixon	-12.4391
▁niñita	-12.4391
▁nocturno	-12.4391
▁noviembre	-12.4391
▁obama	-12.4391
▁origen	-12.4391
▁pathetic	-12.4391
▁peluquero	-12.4391
▁pertenencias	-12.4391
▁pilchas	-12.4391
▁policies	-12.4391
▁probabilidad	-12.4391
▁proceso	-12.4391
▁renuncié	-12.4391
▁repisa	-12.4391
▁repite	-12.4391
▁respetuoso	-12.4391
▁ribbon	-12.4391
▁rumbo	-12.4391
▁satellite	-12.4391
▁shark	-12.4391
▁shinano	-12.4391
▁sidewalk	-12.4391
▁sobresaliente	-12.4391
▁stroke	-12.4391
▁supply	-12.4391
▁surface	-12.4391
▁temporal	-12.4391
▁testamento	-12.4391
▁thursday	-12.4391
▁titanic	-12.4391
▁translating	-12.4391
▁técnica	-12.4391
▁título	-12.4391
▁uneasy	-12.4391
▁unnecessary	-12.4391
▁valiosa	-12.4391
▁vanidoso	-12.4391
▁vaqueros	-12.4391
▁virtud	-12.4391
▁virtue	-12.4391
▁voces	-12.4391
▁wisdom	-12.4391
▁withdrew	-12.4391
▁automático	-12.4391
▁blink	-12.4391
▁context	-12.4391
▁encaja	-12.4391
▁entorno	-12.4391
▁holanda	-12.4391
▁maletín	-12.4391
▁nasty	-12.4391
▁pochoclo	-12.4391
▁sauce	-12.4391
▁sharing	-12.4391
▁sobrina	-12.4391
▁tequila	-12.4391
▁tuviese	-12.4391
▁watermelon	-12.4391
▁culpó	-12.4391
▁cántaros	-12.4391
▁sector	-12.4391
▁setenta	-12.4391
▁waist	-12.4391
▁accurate	-12.4391
▁amenazó	-12.4391
▁delicate	-12.4391
▁explotó	-12.4391
▁narices	-12.4391
▁palillos	-12.4391
▁apagué	-12.4391
▁jewelry	-12.4391
▁máscara	-12.4391
▁rational	-12.4391
▁recibo	-12.4391
▁repetí	-12.4391
▁basic	-12.4391
▁calculadora	-12.4391
▁delfines	-12.4391
▁northern	-12.4391
▁quote	-12.4391
▁rutina	-12.4391
▁tejiendo	-12.4391
▁enfrí	-12.4391
▁nintendo	-12.4391
▁refugiados	-12.4391
▁desconcertado	-12.4391
▁youtube	-12.4391
▁algodón	-12.4391
▁enlace	-12.4391
▁ficción	-12.4391
▁juzgue	-12.4391
▁steam	-12.4391
▁thailand	-12.4391
▁clue	-12.4391
▁connection	-12.4391
▁fiction	-12.4391
▁firewood	-12.4391
▁limón	-12.4391
▁loving	-12.4391
▁natación	-12.4391
▁unwilling	-12.4391
▁huracán	-12.4391
▁griega	-12.4391
▁consciencia	-12.4391
▁creative	-12.4391
▁tailandia	-12.4391
▁memories	-12.4391
▁tradición	-12.4391
▁dinosaurio	-12.4391
▁flojo	-12.4391
▁activa	-12.4391
▁escondas	-12.4391
▁huelo	-12.4391
▁invención	-12.4391
▁encontremos	-12.4391
▁versión	-12.4391
▁almorzado	-12.4391
▁interrumpió	-12.4391
▁partner	-12.4391
▁community	-12.4391
▁volcán	-12.4391
▁fuéramos	-12.4391
▁compass	-12.4391
▁guitarrista	-12.4391
▁carelessness	-12.4391
▁formula	-12.4391
▁agosto	-12.4391
▁calculator	-12.4391
▁nacionalidad	-12.4391
▁crane	-12.4391
▁quédese	-12.4391
▁cupboard	-12.4391
▁consciousness	-12.4391
▁sunlight	-12.4391
▁parallel	-12.4391
▁agradecimiento	-12.4391
▁exhibition	-12.4391
▁knitting	-12.4391
▁ballet	-12.4391
▁estallar	-12.4391
▁previous	-12.4391
▁suertudo	-12.4391
▁curb	-12.4391
▁salesman	-12.4391
▁bombones	-12.4391
▁govern	-12.4391
▁ipod	-12.4391
▁escondí	-12.4391
▁deadline	-12.4392
▁reap	-12.4392
▁preocupo	-12.4392
▁aplicación	-12.4392
▁caramelo	-12.4392
▁descuidado	-12.4392
▁instalar	-12.4392
▁existence	-12.4392
▁puro	-12.4392
▁pulsar	-12.4392
▁murmurando	-12.4392
▁agradecería	-12.4392
▁costosa	-12.4392
▁conducido	-12.4392
▁relajarse	-12.4392
▁preocupaciones	-12.4392
▁liado	-12.4392
▁arco	-12.4392
▁pronunciation	-12.4392
▁tempt	-12.4393
▁elija	-12.4393
▁critical	-12.4393
▁disparado	-12.4393
▁prediction	-12.4393
▁fundamental	-12.4393
semeja	-12.4393
▁fracasado	-12.4393
▁váyase	-12.4393
▁cepillo	-12.4393
▁title	-12.4393
▁chairman	-12.4393
▁disfrazado	-12.4393
▁motion	-12.4393
▁motivado	-12.4393
hower	-12.4393
▁feriado	-12.4394
▁rebelde	-12.4394
▁robé	-12.4394
▁perlas	-12.4394
▁carné	-12.4394
▁policemen	-12.4394
▁fuss	-12.4394
▁manual	-12.4394
▁alfabeto	-12.4395
▁trasera	-12.4395
▁flock	-12.4395
▁luchando	-12.4395
▁bañando	-12.4395
▁dental	-12.4395
▁poli	-12.4395
▁temporary	-12.4395
▁indignado	-12.4395
▁subestimes	-12.4395
▁daily	-12.4395
▁dependable	-12.4395
▁lamentable	-12.4395
▁querrá	-12.4395
▁pues	-12.4395
▁cardíaco	-12.4395
▁fry	-12.4396
inició	-12.4396
stén	-12.4396
▁furiosa	-12.4396
▁ruego	-12.4396
▁desprecio	-12.4397
▁pescando	-12.4397
▁fantástico	-12.4397
▁rodeos	-12.4397
hablá	-12.4398
▁version	-12.4398
▁artificiales	-12.4398
▁destinad	-12.4398
▁wealthy	-12.4398
legó	-12.4399
▁mandado	-12.4399
▁gay	-12.4399
▁superficial	-12.4399
▁firmemente	-12.4399
▁matando	-12.4399
▁fabricado	-12.44
▁confront	-12.44
▁makeup	-12.44
▁viking	-12.44
▁lazie	-12.44
▁signal	-12.44
▁gata	-12.4401
▁print	-12.4401
▁toneladas	-12.4401
▁croa	-12.4401
▁preso	-12.4401
▁costaría	-12.4401
▁llámalo	-12.4402
▁feder	-12.4402
▁americana	-12.4402
▁voyage	-12.4402
▁duck	-12.4402
▁periodo	-12.4404
▁ileso	-12.4404
▁abandonaron	-12.4404
▁pensamos	-12.4405
going	-12.4405
▁logic	-12.4405
▁presté	-12.4405
▁corporal	-12.4406
▁sorbo	-12.4406
▁fastest	-12.4406
▁exacto	-12.4407
▁perdonaré	-12.4407
▁focused	-12.4407
▁somehow	-12.4407
▁tape	-12.4407
▁counter	-12.4407
▁limited	-12.4407
▁molestado	-12.4407
▁cuba	-12.4408
▁enfadarse	-12.4408
▁abrazo	-12.4409
▁ju	-12.4409
▁violento	-12.441
▁absurda	-12.441
▁accomplished	-12.441
▁navegar	-12.4411
▁gray	-12.4411
▁delgada	-12.4411
▁ruta	-12.4412
▁apostar	-12.4412
▁visitarnos	-12.4412
▁create	-12.4413
▁criticized	-12.4413
▁presentarme	-12.4414
▁nik	-12.4414
▁moverse	-12.4414
▁funcionando	-12.4415
▁guardaré	-12.4415
▁niece	-12.4417
▁acostarte	-12.4417
▁costado	-12.4417
▁visado	-12.4418
▁evitarlo	-12.4419
▁intentaron	-12.4419
▁racista	-12.4419
bérmelo	-12.4419
▁flute	-12.4419
▁reserved	-12.442
▁entramos	-12.4421
▁vuelan	-12.4421
▁attic	-12.4422
▁darker	-12.4422
▁conseguimos	-12.4422
▁pacientemente	-12.4424
▁hail	-12.4424
▁conflicto	-12.4424
▁reports	-12.4425
hea	-12.4426
▁bay	-12.4427
▁conocés	-12.4429
▁besarte	-12.4429
vives	-12.4429
▁quedaste	-12.443
▁behaved	-12.443
▁protegerte	-12.4433
▁ironing	-12.4434
▁ocup	-12.4435
▁salty	-12.4435
▁lifted	-12.4436
▁nadador	-12.4436
▁maintain	-12.4436
▁encontraremos	-12.4436
▁cogeré	-12.4437
▁cacahuetes	-12.4437
▁diferenciar	-12.4439
isen	-12.4439
▁destaca	-12.444
▁pasteles	-12.4441
▁picky	-12.4441
▁interna	-12.4441
▁contradict	-12.4442
▁ganaron	-12.4443
▁eliminar	-12.4444
▁farther	-12.4447
▁apretar	-12.4447
▁familiares	-12.4448
▁desire	-12.4448
▁terriblemente	-12.4448
▁mudo	-12.4451
▁mide	-12.4452
▁visitamos	-12.4452
rado	-12.4453
▁intercambiar	-12.4454
▁hip	-12.4454
▁relaxing	-12.4455
▁dolphins	-12.4456
▁galletitas	-12.4456
▁sábanas	-12.4456
▁colegas	-12.4456
▁obeyed	-12.4456
▁usarlo	-12.4459
pensás	-12.4461
▁comporta	-12.4462
▁ganamos	-12.4462
▁jueguen	-12.4466
▁payment	-12.4466
▁strangely	-12.4469
▁goma	-12.4469
▁islam	-12.447
▁admito	-12.447
▁perd	-12.4474
▁terroristas	-12.4476
▁cuidarte	-12.4478
▁libras	-12.4478
▁arreglo	-12.4479
▁stays	-12.4479
▁obedece	-12.4482
▁creés	-12.4485
▁bridges	-12.4485
▁esperaron	-12.4485
▁armada	-12.4488
▁runner	-12.4488
▁recupere	-12.4492
▁caída	-12.4493
▁ganará	-12.4493
▁sn	-12.4495
comes	-12.4497
▁dormi	-12.4497
▁confundid	-12.4503
▁tenista	-12.4509
▁hacés	-12.4512
▁parientes	-12.4513
▁bones	-12.4515
▁pandas	-12.4525
▁pararme	-12.4527
▁vean	-12.453
▁disparos	-12.4531
▁ayudaron	-12.4531
▁encontraría	-12.4536
▁llamarte	-12.4536
▁ajo	-12.4536
▁cri	-12.4538
▁mini	-12.454
cos	-12.4541
▁abrirá	-12.455
▁vini	-12.455
queda	-12.4552
▁pap	-12.4555
▁faults	-12.4557
▁reported	-12.4563
▁víctimas	-12.4568
▁limits	-12.4569
▁realiza	-12.4572
nic	-12.4573
▁male	-12.4574
▁triple	-12.4577
▁bob	-12.4579
▁enseñe	-12.4581
▁entiendas	-12.4586
▁blankets	-12.4587
▁rights	-12.4594
▁deba	-12.4598
▁archivos	-12.4606
▁ganaría	-12.4611
▁dejarle	-12.4619
▁diamantes	-12.4625
▁pigs	-12.4625
▁fáciles	-12.4625
▁sabrás	-12.4626
▁cables	-12.4626
▁dejamos	-12.4629
▁competente	-12.4631
▁acompañar	-12.4631
▁aproxima	-12.4632
▁descansa	-12.4635
▁varía	-12.4636
▁ending	-12.4638
ríamos	-12.4643
▁goats	-12.4643
▁atrac	-12.4644
▁vuelvan	-12.4648
▁chocolates	-12.4648
ache	-12.4651
▁vencer	-12.4655
▁marks	-12.4656
▁oje	-12.4658
▁mosquitos	-12.4664
▁mensajes	-12.4667
▁helada	-12.4667
▁arroj	-12.4679
▁brains	-12.4682
▁mol	-12.4682
▁olvid	-12.4683
▁vidas	-12.4683
dico	-12.4701
▁ayudase	-12.4701
▁aterroriza	-12.4701
▁afueras	-12.4703
▁roman	-12.4704
▁consulta	-12.4709
▁pelos	-12.471
▁cuentos	-12.472
ino	-12.4723
▁tin	-12.4724
▁hoteles	-12.4729
▁forth	-12.4745
▁dejad	-12.4747
sería	-12.4748
▁parecidos	-12.4758
▁disponibles	-12.4758
▁ayuden	-12.4765
▁negociar	-12.4766
▁bro	-12.4769
▁debts	-12.4775
▁aprendes	-12.4781
▁costar	-12.4782
devuélveme	-12.4791
értelo	-12.4792
▁altas	-12.4794
▁morirá	-12.48
▁pastor	-12.4805
▁conseguirá	-12.4809
▁sostiene	-12.4813
▁copas	-12.4813
▁lé	-12.4814
▁actions	-12.4816
▁tube	-12.4819
▁atra	-12.4825
▁ships	-12.4837
▁tocas	-12.4837
▁produces	-12.4847
▁serlo	-12.4849
▁casara	-12.4849
▁mejore	-12.4854
▁condena	-12.4857
▁aterrizar	-12.4867
▁aspectos	-12.4873
awa	-12.4877
▁calcul	-12.488
▁ordenar	-12.4893
▁interests	-12.4894
aid	-12.4896
▁skip	-12.4902
▁training	-12.4906
▁castiga	-12.4911
▁goals	-12.4911
▁materials	-12.4911
▁procur	-12.4918
ping	-12.4922
▁pes	-12.495
ison	-12.4958
▁preocupar	-12.4963
▁limpiara	-12.4974
jones	-12.4977
▁coste	-12.4978
▁barcos	-12.4981
▁abiertos	-12.4989
▁besado	-12.5
naciones	-12.5003
▁recort	-12.5009
▁presum	-12.5017
▁patients	-12.5019
▁echas	-12.5029
▁fo	-12.5033
▁ache	-12.5036
▁extendi	-12.5037
▁tr	-12.5045
preció	-12.5072
▁kn	-12.5073
▁rooms	-12.5076
▁cumpl	-12.5082
▁recompensa	-12.509
▁exige	-12.5092
▁casos	-12.5102
▁acaban	-12.5104
▁busque	-12.5105
▁holes	-12.5107
▁fondos	-12.5122
▁salva	-12.5128
▁caballeros	-12.513
vando	-12.5131
▁entres	-12.5134
▁bombs	-12.5135
▁poné	-12.5138
▁chup	-12.514
▁opens	-12.514
▁v	-12.5142
ah	-12.5144
pagando	-12.5153
▁pint	-12.5164
▁chi	-12.5168
▁remo	-12.5176
tenía	-12.5189
icked	-12.5189
▁favoritos	-12.5196
aza	-12.5197
▁blancas	-12.5205
▁exists	-12.5206
▁representa	-12.5206
▁forms	-12.5216
▁dolls	-12.5221
▁levantan	-12.5227
gar	-12.5228
▁esperan	-12.5238
ondas	-12.5243
▁coc	-12.5244
▁desorden	-12.5254
▁contesta	-12.5262
▁detesta	-12.527
▁indicate	-12.527
bel	-12.5271
ai	-12.5281
tely	-12.5294
▁nadaba	-12.5303
▁medias	-12.5321
▁mile	-12.5321
▁cantantes	-12.5325
▁points	-12.5339
▁aspir	-12.5341
▁singers	-12.5348
eight	-12.5355
▁formar	-12.5364
▁cerradas	-12.5366
▁tomara	-12.5378
yendo	-12.5381
▁intentas	-12.5398
▁vestidos	-12.5399
▁raises	-12.5409
▁barri	-12.541
lin	-12.5413
▁islands	-12.5429
▁pl	-12.5442
▁abr	-12.5444
▁tí	-12.5458
▁frances	-12.5463
▁principios	-12.5465
toca	-12.5467
▁banks	-12.5476
seguro	-12.5491
ps	-12.5492
escrib	-12.5496
▁desear	-12.5506
▁console	-12.5508
vie	-12.5512
▁realiz	-12.5525
▁uniform	-12.5525
▁humillad	-12.553
bul	-12.5537
▁encarg	-12.5553
▁includ	-12.5564
▁invadi	-12.5573
▁gua	-12.5574
ensa	-12.5577
▁unir	-12.5585
▁enterrar	-12.5586
▁carreras	-12.5587
itos	-12.559
▁ch	-12.5601
▁instant	-12.5608
▁remark	-12.5609
desea	-12.5617
pensá	-12.5626
▁evita	-12.5644
▁arriesga	-12.565
sador	-12.5653
▁volverás	-12.5662
▁stir	-12.5666
▁restos	-12.5671
▁apuesta	-12.5672
▁capítulo	-12.5672
▁kitten	-12.5672
▁minifalda	-12.5672
▁pendiente	-12.5672
▁crí	-12.5675
▁bacteria	-12.5675
▁maravilla	-12.5676
▁recuperará	-12.5676
▁anuncio	-12.5676
▁transporte	-12.5677
▁liberado	-12.5678
▁candidate	-12.5678
▁confirmar	-12.5678
▁graciosa	-12.5678
▁lavarropa	-12.568
▁clavo	-12.5681
▁pariente	-12.5682
▁permít	-12.5682
▁huella	-12.5684
▁brake	-12.5684
▁mueva	-12.5684
▁estampilla	-12.5684
▁británico	-12.5685
▁crop	-12.5685
▁lip	-12.5686
▁peanut	-12.5687
▁mueble	-12.5688
▁despe	-12.5691
▁charges	-12.5692
▁panda	-12.57
▁hacé	-12.5703
primió	-12.5705
▁arranca	-12.5705
▁ayudan	-12.5709
▁pal	-12.5712
▁cl	-12.5718
▁milla	-12.5719
▁exhibi	-12.5721
▁errors	-12.573
▁sigh	-12.5731
▁aprendi	-12.5737
ple	-12.5738
▁irrelevant	-12.5741
▁sets	-12.5741
▁resfri	-12.5742
▁marc	-12.5745
▁reí	-12.5746
▁corro	-12.5756
ciento	-12.5764
▁gal	-12.5766
▁escabull	-12.5766
rang	-12.5766
ulated	-12.5766
bló	-12.5767
flexible	-12.5767
water	-12.577
successful	-12.577
podrá	-12.5771
minute	-12.5771
ojal	-12.5771
había	-12.5771
saw	-12.5772
▁temía	-12.5774
▁supus	-12.5776
▁admiraba	-12.5777
▁investiga	-12.5785
▁instal	-12.5785
▁rellen	-12.5786
estuviste	-12.5786
sois	-12.5787
hablaste	-12.579
▁abro	-12.5801
juegas	-12.5802
▁involve	-12.5804
▁disguise	-12.5804
▁struggle	-12.5805
▁stress	-12.5806
▁resuelv	-12.5806
▁crear	-12.5806
▁offend	-12.5807
▁interrumpir	-12.5809
▁compulsiv	-12.581
▁fascina	-12.581
▁mona	-12.581
▁afila	-12.5811
▁wink	-12.5811
▁cristal	-12.5811
▁separar	-12.5811
▁contribute	-12.5813
▁indigna	-12.5814
hand	-12.5815
▁necessar	-12.5816
▁apropiada	-12.5816
▁chase	-12.5816
▁adecuada	-12.5816
▁valle	-12.5817
▁tomato	-12.5817
▁vestir	-12.5818
▁gasoline	-12.5819
cript	-12.5819
▁futbol	-12.5819
irás	-12.5819
▁previo	-12.5819
▁significant	-12.5819
▁casual	-12.5819
▁insiste	-12.5819
▁opone	-12.5819
▁calendar	-12.5819
▁differ	-12.5819
▁slump	-12.5819
▁intimida	-12.5819
óxido	-12.5819
▁acertijo	-12.5819
▁agriculture	-12.5819
▁ambiente	-12.5819
▁ambition	-12.5819
▁apuñala	-12.5819
▁archaeologist	-12.5819
▁asesinó	-12.5819
▁astronomía	-12.5819
▁attribute	-12.5819
▁automáticamente	-12.5819
▁banquero	-12.5819
▁bargain	-12.5819
▁batteries	-12.5819
▁belief	-12.5819
▁benefit	-12.5819
▁bulb	-12.5819
▁calefacción	-12.5819
▁calurosa	-12.5819
▁carpenter	-12.5819
▁catálogo	-12.5819
▁cenizas	-12.5819
▁chantaje	-12.5819
▁cirugía	-12.5819
▁comestibles	-12.5819
▁conducción	-12.5819
▁confidencial	-12.5819
▁cradle	-12.5819
▁democracia	-12.5819
▁democracy	-12.5819
▁descifr	-12.5819
▁despierte	-12.5819
▁destruido	-12.5819
▁devorado	-12.5819
▁devuelto	-12.5819
▁dictionaries	-12.5819
▁diligent	-12.5819
▁dishonest	-12.5819
▁divertiste	-12.5819
▁drastic	-12.5819
▁duties	-12.5819
▁edge	-12.5819
▁efficient	-12.5819
▁elevó	-12.5819
▁embajador	-12.5819
▁encantó	-12.5819
▁encerrado	-12.5819
▁entusiasmo	-12.5819
▁equivoqué	-12.5819
▁errand	-12.5819
▁especie	-12.5819
▁estrelló	-12.5819
▁estupideces	-12.5819
▁exactitud	-12.5819
▁expliqué	-12.5819
▁fabuloso	-12.5819
▁fountain	-12.5819
▁fregadero	-12.5819
▁harbor	-12.5819
▁hiciéramos	-12.5819
▁hidrógeno	-12.5819
▁hígado	-12.5819
▁infarto	-12.5819
▁inhabitants	-12.5819
▁injury	-12.5819
▁instinto	-12.5819
▁intenso	-12.5819
▁inversión	-12.5819
▁irresponsible	-12.5819
▁jungle	-12.5819
▁lastimé	-12.5819
▁lechuga	-12.5819
▁magician	-12.5819
▁mammal	-12.5819
▁nacido	-12.5819
▁netherlands	-12.5819
▁nocturna	-12.5819
▁padrastro	-12.5819
▁palideció	-12.5819
▁palomitas	-12.5819
▁panadería	-12.5819
▁peculiar	-12.5819
▁perfección	-12.5819
▁pickpocket	-12.5819
▁portugués	-12.5819
▁positivo	-12.5819
▁promising	-12.5819
▁psiquiatra	-12.5819
▁pulmón	-12.5819
▁quebrado	-12.5819
▁questionnaire	-12.5819
▁receipt	-12.5819
▁refiero	-12.5819
▁relájate	-12.5819
▁romántica	-12.5819
▁routine	-12.5819
▁rudo	-12.5819
▁sartén	-12.5819
▁satisfacer	-12.5819
▁satélite	-12.5819
▁signature	-12.5819
▁slim	-12.5819
▁snoring	-12.5819
▁snuggle	-12.5819
▁sorrow	-12.5819
▁souvenir	-12.5819
▁squirrel	-12.5819
▁stadium	-12.5819
▁stranded	-12.5819
▁stream	-12.5819
▁sunbathing	-12.5819
▁survivor	-12.5819
▁sólida	-12.5819
▁sótano	-12.5819
▁tabla	-12.5819
▁telescope	-12.5819
▁telescopio	-12.5819
▁tripulación	-12.5819
▁troops	-12.5819
▁tropez	-12.5819
▁unattended	-12.5819
▁vacuum	-12.5819
▁valentín	-12.5819
▁veinticinco	-12.5819
▁venecia	-12.5819
▁vergonzoso	-12.5819
▁widow	-12.5819
▁yield	-12.5819
▁accidentalmente	-12.5819
▁contagiosa	-12.5819
▁conversamos	-12.5819
▁intersection	-12.5819
▁masculine	-12.5819
▁nochebuena	-12.5819
▁picó	-12.5819
▁recoja	-12.5819
▁rural	-12.5819
▁scandal	-12.5819
▁simpatía	-12.5819
▁spouse	-12.5819
▁afición	-12.5819
▁alexand	-12.5819
▁blend	-12.5819
▁criticism	-12.5819
▁debiera	-12.5819
▁farmacia	-12.5819
▁lettuce	-12.5819
▁communication	-12.5819
▁automatically	-12.5819
▁rebaja	-12.5819
▁representative	-12.5819
▁roast	-12.5819
▁sequía	-12.5819
▁aéreo	-12.5819
▁proposición	-12.5819
▁silenciosamente	-12.5819
órale	-12.5819
▁cuídate	-12.5819
▁folk	-12.5819
▁quédense	-12.5819
▁separó	-12.5819
▁chofer	-12.5819
▁compasión	-12.5819
▁distraído	-12.5819
▁espinacas	-12.5819
▁foul	-12.5819
▁quíte	-12.5819
▁wreck	-12.5819
▁estrés	-12.5819
▁specific	-12.5819
▁cooperation	-12.5819
▁basis	-12.5819
▁estadio	-12.5819
▁psychiatrist	-12.5819
▁diplomatic	-12.5819
▁disputa	-12.5819
▁dominio	-12.5819
▁doorbell	-12.5819
▁reemplazar	-12.5819
▁britain	-12.5819
▁pecado	-12.5819
▁salmon	-12.5819
▁emoción	-12.5819
▁vestía	-12.5819
▁rompiste	-12.5819
▁sacudirse	-12.5819
▁sorda	-12.5819
▁calendario	-12.5819
▁dispers	-12.5819
▁mommy	-12.5819
▁cafe	-12.5819
▁calificaciones	-12.5819
▁grueso	-12.5819
▁exceso	-12.5819
▁categoría	-12.5819
▁haciéndolo	-12.5819
▁proverbio	-12.5819
▁meditating	-12.5819
▁torpe	-12.5819
▁entendiera	-12.582
▁humid	-12.582
▁dudé	-12.582
▁factories	-12.582
▁fiddle	-12.582
▁identificar	-12.582
▁pesimista	-12.582
▁carcajada	-12.582
▁objective	-12.582
▁secure	-12.582
▁bakery	-12.582
▁cartero	-12.582
▁ocurriendo	-12.582
▁unbearable	-12.582
▁nationality	-12.582
▁temblando	-12.582
▁díganme	-12.582
▁enseñanza	-12.582
▁skeptic	-12.582
▁villagers	-12.582
▁accountant	-12.582
▁disappointment	-12.582
▁handbag	-12.582
▁pudiéramos	-12.582
▁rainbow	-12.582
▁regañado	-12.582
▁luckily	-12.582
▁gravedad	-12.582
▁hormigas	-12.582
▁apresurado	-12.582
▁tremble	-12.582
▁defectuoso	-12.582
▁dentífrico	-12.582
▁function	-12.582
▁temperamento	-12.582
▁aparcado	-12.582
▁pulsera	-12.582
▁descuido	-12.582
▁tasty	-12.582
▁regalado	-12.582
▁podrido	-12.582
▁fatter	-12.582
▁reflect	-12.582
▁espina	-12.582
▁actuación	-12.582
▁fulfill	-12.582
▁perdóneme	-12.582
▁realistic	-12.582
▁mankind	-12.582
▁pronunciación	-12.582
▁inspired	-12.582
▁alpes	-12.582
▁desempleado	-12.582
▁opuesto	-12.582
▁destrozado	-12.582
▁complacer	-12.5821
▁fíe	-12.5821
▁tóme	-12.5821
▁existir	-12.5821
▁bailarín	-12.5821
▁humanity	-12.5821
▁entregué	-12.5821
▁venice	-12.5821
▁avísame	-12.5821
▁arduamente	-12.5821
▁regardless	-12.5821
▁alcoholic	-12.5821
▁comic	-12.5821
▁fund	-12.5821
▁vanished	-12.5821
▁gesto	-12.5821
▁airmail	-12.5821
▁passage	-12.5821
▁contaste	-12.5821
▁jardinero	-12.5821
▁asians	-12.5821
▁caminé	-12.5821
▁espantoso	-12.5821
▁cocido	-12.5821
▁cesta	-12.5821
▁gris	-12.5822
▁dimitir	-12.5822
▁hotter	-12.5822
▁spin	-12.5822
▁deshonesto	-12.5822
▁maleducado	-12.5822
▁pospondr	-12.5822
▁ahogando	-12.5822
▁cockroaches	-12.5822
▁extraordinario	-12.5822
▁aventón	-12.5822
▁shortage	-12.5822
▁salsa	-12.5822
▁termino	-12.5822
▁crecido	-12.5822
bebes	-12.5822
▁sociable	-12.5822
▁graduarse	-12.5822
▁minerales	-12.5822
▁contratado	-12.5822
▁mataste	-12.5822
▁desayuné	-12.5823
▁alcance	-12.5823
▁vigilando	-12.5823
▁desarrollo	-12.5823
▁frustrado	-12.5823
▁fist	-12.5823
▁valley	-12.5823
▁especialidad	-12.5823
▁escondiste	-12.5823
▁observa	-12.5823
▁compleja	-12.5824
▁vestirse	-12.5824
▁innecesario	-12.5824
▁global	-12.5824
▁ligeramente	-12.5824
▁distingue	-12.5824
▁educated	-12.5824
▁instantly	-12.5824
▁tiny	-12.5824
▁recovery	-12.5824
▁resfrío	-12.5824
▁speechless	-12.5824
▁entretenido	-12.5824
▁estupendamente	-12.5824
▁súbe	-12.5824
employment	-12.5824
▁chile	-12.5825
▁recordado	-12.5825
▁prepárate	-12.5825
▁damp	-12.5825
▁obligaron	-12.5825
▁snowman	-12.5825
▁implicado	-12.5825
▁examinar	-12.5825
▁evitando	-12.5825
sterna	-12.5826
▁worthless	-12.5826
▁tender	-12.5826
▁misteriosa	-12.5826
▁centr	-12.5826
▁reímos	-12.5826
▁indefenso	-12.5826
▁traduzca	-12.5826
▁childish	-12.5827
▁sickness	-12.5827
▁retirarse	-12.5827
▁fama	-12.5828
▁untied	-12.5828
▁perdonará	-12.5828
▁manejando	-12.5828
▁sailing	-12.5828
▁anticipated	-12.5828
▁conquer	-12.5828
▁dispararon	-12.5828
▁déjelo	-12.5828
▁sucederá	-12.5828
▁repetirlo	-12.5829
▁nacionales	-12.5829
▁commander	-12.583
▁conocerla	-12.583
▁ticking	-12.583
▁wax	-12.583
▁fade	-12.583
▁entraste	-12.583
▁decepción	-12.5831
▁intentemos	-12.5831
▁conveniente	-12.5831
▁chopsticks	-12.5831
▁estribos	-12.5831
▁villancicos	-12.5831
▁dímelo	-12.5832
▁racional	-12.5832
▁necesitáis	-12.5832
▁suelta	-12.5832
▁secuestrado	-12.5832
▁agitó	-12.5832
▁socio	-12.5832
▁cantemos	-12.5833
▁trajiste	-12.5833
▁orilla	-12.5833
010.	-12.5834
▁spying	-12.5834
▁prestada	-12.5835
▁outcome	-12.5835
▁despedirse	-12.5836
▁barra	-12.5836
▁liberal	-12.5836
▁arrestada	-12.5837
▁lejano	-12.5837
▁quemando	-12.5837
▁dna	-12.5837
▁moriría	-12.5837
▁competed	-12.5838
▁dull	-12.5838
▁cansando	-12.5838
▁captured	-12.5838
▁ripe	-12.5838
▁apunté	-12.5839
▁bandage	-12.5839
▁triunfará	-12.5839
▁phrase	-12.5839
▁atraviesa	-12.5839
prendieron	-12.584
▁apretado	-12.584
▁alley	-12.584
▁capacidades	-12.584
▁subimos	-12.584
▁esconderse	-12.584
▁barked	-12.584
▁sentís	-12.584
▁amigable	-12.5841
▁update	-12.5842
▁preparé	-12.5843
▁shaving	-12.5843
▁witnesses	-12.5843
▁reírse	-12.5844
▁gardener	-12.5844
▁alps	-12.5845
cakes	-12.5845
▁sandía	-12.5846
▁leíste	-12.5846
▁reporter	-12.5847
gave	-12.5847
▁envío	-12.5847
▁envíame	-12.5847
▁paseando	-12.5848
▁subieron	-12.5848
▁loaded	-12.5848
▁packing	-12.5849
▁sello	-12.5849
▁consideraría	-12.585
▁easter	-12.5851
▁débiles	-12.5851
▁amará	-12.5851
▁siembras	-12.5852
▁mariscos	-12.5852
▁refugees	-12.5852
▁apoyes	-12.5852
▁viajero	-12.5854
▁fled	-12.5855
▁choke	-12.5858
wed	-12.5858
▁flipp	-12.5858
▁sillón	-12.5859
▁exponer	-12.586
▁sección	-12.586
▁mejorará	-12.586
▁cenando	-12.5861
▁permitiré	-12.5862
▁invenci	-12.5863
▁pony	-12.5864
▁enfrente	-12.5864
▁cured	-12.5864
▁limpiado	-12.5866
cidimos	-12.5867
▁callada	-12.5868
▁flexible	-12.5871
▁comparta	-12.5872
ncionado	-12.5872
▁canceló	-12.5872
▁descubrirá	-12.5873
▁intentamos	-12.5873
▁barrer	-12.5873
▁inseguro	-12.5873
▁indios	-12.5874
▁disturbed	-12.5874
▁muelas	-12.5874
▁hamburgers	-12.5874
▁freezes	-12.5874
▁visitantes	-12.5875
▁llamarle	-12.5875
▁patas	-12.5877
▁fasten	-12.5878
▁increased	-12.5878
▁stores	-12.5878
▁italiana	-12.5878
▁lamentar	-12.5881
▁ironed	-12.5882
cera	-12.5882
▁bate	-12.5885
▁escucharon	-12.5885
▁salada	-12.5887
▁visitarle	-12.5888
▁planeamos	-12.5888
▁completar	-12.5889
▁terminarlo	-12.5889
▁cruzado	-12.5889
▁sáca	-12.5892
▁boasts	-12.5895
▁stinks	-12.5895
▁owls	-12.5895
▁cucarachas	-12.5895
▁cultivos	-12.5896
▁detente	-12.5896
cendió	-12.5896
▁helados	-12.5897
▁pensaría	-12.5898
▁travelers	-12.5898
▁irrelevante	-12.5899
▁conducía	-12.59
▁planchar	-12.59
▁creerlo	-12.59
▁echarme	-12.5901
▁poorly	-12.5901
▁armado	-12.5903
▁toser	-12.5903
▁conocerle	-12.5904
▁anchor	-12.5906
vivieron	-12.5906
▁strongly	-12.5907
▁gaze	-12.5913
▁llamarlo	-12.5916
▁cebollas	-12.5917
▁colleagues	-12.5917
▁pigeons	-12.5917
▁terrorists	-12.5917
▁employed	-12.5919
▁signs	-12.5919
▁decirnos	-12.5921
▁cambiarme	-12.5922
▁calculat	-12.5927
fit	-12.5928
▁plantar	-12.5929
vendrás	-12.5931
tivos	-12.5933
▁extraordinaria	-12.5933
▁relaje	-12.5935
▁fumes	-12.5937
▁flota	-12.5939
▁scraps	-12.5939
▁examin	-12.5939
▁mueras	-12.5939
▁cría	-12.5939
▁prefieren	-12.594
▁extinct	-12.5941
▁preguntaría	-12.5941
▁hum	-12.5943
▁gotea	-12.5943
▁delight	-12.5946
▁doblar	-12.5948
▁bathing	-12.595
▁puño	-12.595
▁alrededores	-12.595
▁rías	-12.5953
▁descubra	-12.5953
▁footing	-12.5955
estaría	-12.5955
▁presione	-12.5958
▁haríamos	-12.5959
▁cantes	-12.596
▁lavarropas	-12.5961
cula	-12.5964
▁dais	-12.5969
▁encontrarla	-12.5974
▁seller	-12.5975
▁formed	-12.5976
▁islas	-12.5976
illos	-12.5978
▁culpado	-12.5979
▁anti	-12.598
▁mascotas	-12.5982
▁codos	-12.5983
▁docenas	-12.5983
▁surf	-12.5983
▁christians	-12.5987
▁reales	-12.5988
▁lidiar	-12.5993
▁modernos	-12.5993
▁creerá	-12.5994
▁abejas	-12.6004
▁pisos	-12.6006
▁spie	-12.6007
▁dolores	-12.601
▁peaceful	-12.6012
▁salgan	-12.6013
adores	-12.6015
ack	-12.6021
▁abiertas	-12.6022
▁argumento	-12.6023
▁disfrutan	-12.6024
▁vendid	-12.6028
▁temen	-12.6032
▁comenzará	-12.6033
sant	-12.6035
ana	-12.6041
▁relojes	-12.6045
▁hablaban	-12.6046
jaba	-12.6048
▁slices	-12.6048
▁kites	-12.6048
alizado	-12.6052
▁ping	-12.6052
irse	-12.6055
▁exceptions	-12.6059
▁union	-12.6065
xed	-12.6067
▁ingresar	-12.6067
▁estimate	-12.6067
▁importado	-12.607
▁noel	-12.6071
▁boils	-12.6071
▁pila	-12.6073
▁decida	-12.6074
▁violenta	-12.6082
▁smoked	-12.6086
▁mejoró	-12.6086
▁cámaras	-12.6087
right	-12.609
▁límites	-12.6092
▁proven	-12.6093
▁compensar	-12.6093
▁debían	-12.6094
▁economics	-12.6095
▁atacar	-12.61
▁ayudarlos	-12.6104
▁tierras	-12.6107
▁probe	-12.6108
▁últimas	-12.6109
▁secos	-12.6111
▁abs	-12.6112
▁characters	-12.6115
▁suspendi	-12.6115
▁preguntaste	-12.6118
ridad	-12.6119
lena	-12.6133
▁cortés	-12.6134
▁aceptara	-12.6136
▁pesadillas	-12.6137
ain	-12.6139
▁adivine	-12.6144
▁cro	-12.615
coming	-12.6154
▁armar	-12.6158
ona	-12.6162
▁cometas	-12.6165
▁cantan	-12.6168
vida	-12.6168
▁ants	-12.6169
urged	-12.6171
▁favorable	-12.6172
▁compraré	-12.6172
▁acostumbra	-12.6188
▁amables	-12.619
▁guardias	-12.6204
▁amado	-12.6204
▁za	-12.6205
▁oscuras	-12.6206
▁eater	-12.6209
▁envi	-12.6211
▁quedate	-12.6212
▁machines	-12.6213
▁misa	-12.6216
▁librar	-12.6217
▁dejaba	-12.6218
▁fr	-12.622
▁imitar	-12.6221
▁pidas	-12.6223
▁hatch	-12.6223
▁consumi	-12.6229
▁enterr	-12.623
sitting	-12.6235
▁diseñ	-12.6236
▁decepcione	-12.6239
▁demandas	-12.624
mamente	-12.6243
▁photographs	-12.6248
bieron	-12.6249
▁percat	-12.6268
▁regreses	-12.6268
▁obligar	-12.6269
▁cosechas	-12.627
▁falt	-12.6271
▁ji	-12.6274
▁intent	-12.6277
▁extrañas	-12.6281
▁matará	-12.6281
▁pierdes	-12.6293
▁testigos	-12.6293
▁veían	-12.6296
imiento	-12.6301
▁tardar	-12.6305
▁estudian	-12.6309
▁flo	-12.6315
▁comerse	-12.6323
▁expertos	-12.6324
▁manifestan	-12.6334
▁aguard	-12.6337
▁medidas	-12.6338
▁francesas	-12.634
▁recorte	-12.6348
▁questioned	-12.6349
tales	-12.635
▁pato	-12.635
▁apariencias	-12.636
▁impacientes	-12.636
▁finja	-12.6371
▁maravillosas	-12.6379
▁recibier	-12.6393
nzaron	-12.6395
▁causas	-12.641
▁confies	-12.641
▁ro	-12.6418
▁experts	-12.6427
▁lindos	-12.6429
▁tests	-12.6443
▁hicieran	-12.6452
▁decor	-12.646
▁desayunas	-12.6461
▁vivirá	-12.6462
hu	-12.6466
hei	-12.6468
▁pisa	-12.6476
▁sopla	-12.6489
tomas	-12.6492
▁permití	-12.6494
▁sujeta	-12.6496
▁veranos	-12.6496
▁mencionar	-12.6497
▁tear	-12.6502
▁ceder	-12.6508
avo	-12.6514
▁cam	-12.6516
▁cubr	-12.6516
▁shoulders	-12.6532
▁quedaras	-12.654
▁host	-12.6547
▁vendrán	-12.6565
▁motivos	-12.6566
aped	-12.6566
▁bajos	-12.6574
uta	-12.6578
▁pil	-12.6588
▁dormitorios	-12.6588
table	-12.6597
▁encantar	-12.6598
▁choices	-12.6603
▁presenta	-12.6607
▁artículos	-12.6611
cubre	-12.6622
▁llenar	-12.6623
gle	-12.6624
▁computadoras	-12.6628
▁quitas	-12.6647
▁arriesgar	-12.6647
▁founded	-12.6651
tained	-12.6651
▁costumbres	-12.6658
worthy	-12.6665
uf	-12.6668
▁pagas	-12.6677
▁chu	-12.6679
▁invade	-12.668
lder	-12.6686
▁comerla	-12.6692
irte	-12.6694
▁miran	-12.6694
▁mejora	-12.6695
▁tag	-12.6697
▁apt	-12.6698
▁enamorar	-12.6698
▁corresponde	-12.671
riendo	-12.6711
▁peleas	-12.6713
▁consola	-12.6718
▁dies	-12.6718
▁seasons	-12.6727
▁aconseja	-12.6727
idos	-12.6732
cito	-12.6734
▁renta	-12.6737
▁nu	-12.6742
▁alza	-12.675
▁fábricas	-12.675
▁corri	-12.6787
▁hats	-12.6794
ight	-12.6807
▁limita	-12.6808
▁preste	-12.6808
▁descanse	-12.6812
▁écha	-12.6818
▁bord	-12.6819
▁flights	-12.682
▁award	-12.6824
▁restaurants	-12.6843
▁gustos	-12.6844
▁envejec	-12.6857
af	-12.686
▁desp	-12.6865
aremos	-12.6871
ori	-12.6881
▁modos	-12.6894
▁cerra	-12.6894
cena	-12.6894
ap	-12.6905
érgico	-12.6923
▁exercises	-12.6934
▁provoca	-12.6939
▁cantara	-12.6946
▁recost	-12.6946
▁entendi	-12.6955
▁speakers	-12.6959
▁enterar	-12.6967
▁mari	-12.6967
▁emp	-12.6979
día	-12.6981
▁raras	-12.6988
▁trans	-12.6989
▁burla	-12.7008
ili	-12.7008
▁felicitar	-12.701
▁agit	-12.7011
▁escal	-12.7013
▁rings	-12.7029
▁preparados	-12.7034
lia	-12.7037
▁reun	-12.7044
▁bells	-12.7052
▁mondays	-12.7053
▁chin	-12.7054
mina	-12.706
ivo	-12.7064
ario	-12.7072
▁propus	-12.7074
▁golpea	-12.7078
▁cuestion	-12.7081
▁captura	-12.7088
▁escapa	-12.7092
cción	-12.7106
▁fij	-12.7111
▁mantene	-12.7132
▁recuper	-12.7141
▁regal	-12.7144
tiva	-12.7155
puso	-12.716
volverá	-12.7163
▁gi	-12.717
▁moj	-12.717
▁leap	-12.7174
▁conocías	-12.7181
tiles	-12.7199
▁pónga	-12.7202
▁pelotas	-12.7204
▁portar	-12.7206
▁lees	-12.7208
▁wi	-12.7214
▁pospus	-12.7214
leading	-12.7216
▁choca	-12.7229
ssured	-12.723
▁chatte	-12.723
acción	-12.723
nero	-12.7235
fer	-12.7239
ddling	-12.7246
▁pose	-12.725
jó	-12.7256
▁retrasa	-12.7258
▁elegi	-12.7264
▁pun	-12.7279
▁reza	-12.7287
▁sudar	-12.7294
light	-12.7294
▁odias	-12.7297
▁films	-12.7297
gué	-12.7299
dir	-12.7305
pón	-12.7306
▁atender	-12.7313
▁serie	-12.7321
▁tratas	-12.7326
▁consulte	-12.7327
▁telefone	-12.7328
▁instrument	-12.733
▁aliado	-12.7338
▁ninja	-12.7342
▁esclavo	-12.7343
▁expire	-12.7344
▁channel	-12.7345
▁órgano	-12.7345
▁conduzca	-12.7345
▁voto	-12.7345
▁lung	-12.7345
▁brace	-12.7345
▁fruits	-12.7346
▁muera	-12.7348
▁hueso	-12.7351
▁pein	-12.7351
▁instrumento	-12.7351
▁wave	-12.7351
▁labio	-12.7352
▁herramienta	-12.7353
▁option	-12.7353
▁impuesto	-12.7354
▁galleta	-12.7355
▁guest	-12.7356
▁bone	-12.7359
▁european	-12.7359
▁cojo	-12.736
▁bombero	-12.7361
▁aparc	-12.7363
▁vegetariano	-12.7366
▁acud	-12.7373
▁freno	-12.7374
▁scrap	-12.7374
▁ahorr	-12.7375
▁continu	-12.7383
▁fume	-12.7384
irme	-12.7388
▁revise	-12.7392
▁rescat	-12.7392
▁incompetent	-12.7394
▁conform	-12.7394
▁mezcl	-12.7408
▁sentimiento	-12.7408
▁añadi	-12.7412
▁despreci	-12.7412
▁cobrar	-12.7418
▁urban	-12.7419
▁natives	-12.742
▁encontrará	-12.7424
▁tolerar	-12.7426
▁aparecer	-12.7427
fashioned	-12.7428
creéis	-12.7428
▁eleva	-12.7428
iar	-12.743
▁pensá	-12.7431
room	-12.7432
▁tribu	-12.7432
▁bars	-12.7432
¡	-12.7433
conocés	-12.7434
lloverá	-12.7436
down	-12.7436
ayuda	-12.7436
capable	-12.7437
viniste	-12.7437
américa	-12.7437
vosotros	-12.7437
box	-12.7437
judge	-12.7437
hiciste	-12.7438
great	-12.7438
sentimiento	-12.7438
comer	-12.7439
▁conflict	-12.744
▁sueña	-12.7442
▁vuela	-12.7445
▁froze	-12.7445
hold	-12.7448
▁describir	-12.7449
ley	-12.7451
▁envía	-12.7453
▁persuadi	-12.7453
▁arrogant	-12.7453
▁monta	-12.7455
anda	-12.7455
aleja	-12.7456
▁comedia	-12.7457
struyó	-12.7459
▁consent	-12.7459
▁elect	-12.746
torio	-12.7461
▁frighten	-12.7462
▁approach	-12.7463
▁fallo	-12.7465
solo	-12.7465
▁traducid	-12.7467
▁bolsas	-12.7469
▁cuénta	-12.7471
away	-12.7471
▁déja	-12.7471
▁amuse	-12.7472
▁fiel	-12.7473
▁relie	-12.7473
▁scold	-12.7474
▁desconocid	-12.7475
▁sail	-12.7475
▁appeti	-12.7477
▁espacial	-12.7477
▁occidental	-12.7478
▁traductor	-12.7478
▁mantel	-12.7479
▁actividad	-12.7479
▁obsolet	-12.748
▁volcano	-12.748
▁inund	-12.748
▁ronca	-12.748
▁escoge	-12.7482
▁proper	-12.7482
▁propone	-12.7482
▁pregúnta	-12.7482
▁guilt	-12.7483
▁murmur	-12.7483
▁imprudente	-12.7483
▁quinient	-12.7484
▁mug	-12.7484
▁enséñ	-12.7484
▁identi	-12.7485
brieron	-12.7485
ollywood	-12.7485
▁scienti	-12.7485
▁aboli	-12.7485
icycle	-12.7485
▁ingenio	-12.7486
▁territor	-12.7486
▁incorr	-12.7486
▁acarici	-12.7486
▁consecutiv	-12.7486
▁desperdicie	-12.7486
▁destruir	-12.7486
▁improvis	-12.7486
▁precisa	-12.7486
▁proceed	-12.7486
oportuno	-12.7486
zhou	-12.7486
ófono	-12.7486
▁acantilado	-12.7486
▁acepté	-12.7486
▁ambición	-12.7486
▁amplia	-12.7486
▁approval	-12.7486
▁aprendizaje	-12.7486
▁astronomy	-12.7486
▁babysitter	-12.7486
▁background	-12.7486
▁backward	-12.7486
▁birome	-12.7486
▁blackmailed	-12.7486
▁básica	-12.7486
▁cachorrito	-12.7486
▁caigo	-12.7486
▁callejón	-12.7486
▁campesino	-12.7486
▁campeón	-12.7486
▁carpintero	-12.7486
▁carretilla	-12.7486
▁catástrofe	-12.7486
▁cayera	-12.7486
▁celsius	-12.7486
▁centímetros	-12.7486
▁cepíll	-12.7486
▁certeza	-12.7486
▁chicle	-12.7486
▁circo	-12.7486
▁cocodrilo	-12.7486
▁comandante	-12.7486
▁compromise	-12.7486
▁comunican	-12.7486
▁comunidad	-12.7486
▁conclude	-12.7486
▁conexión	-12.7486
▁construí	-12.7486
▁controversial	-12.7486
▁cricket	-12.7486
▁crocodile	-12.7486
▁cuenco	-12.7486
▁cuervo	-12.7486
▁cuñado	-12.7486
▁cólera	-12.7486
▁dañó	-12.7486
▁deceased	-12.7486
▁decírtelo	-12.7486
▁derribó	-12.7486
▁desacuerdo	-12.7486
▁descompuesto	-12.7486
▁desilusionado	-12.7486
▁despidió	-12.7486
▁detroit	-12.7486
▁diabetic	-12.7486
▁disorder	-12.7486
▁distraiga	-12.7486
▁divierte	-12.7486
▁divulg	-12.7486
▁dreadful	-12.7486
▁dripping	-12.7486
▁duplicado	-12.7486
▁ebriedad	-12.7486
▁eclipse	-12.7486
▁eficaz	-12.7486
▁eficiente	-12.7486
▁eiffel	-12.7486
▁elogió	-12.7486
▁embrujada	-12.7486
▁enthusiasm	-12.7486
▁escéptic	-12.7486
▁escúchame	-12.7486
▁esperándote	-12.7486
▁estrecho	-12.7486
▁estresante	-12.7486
▁evacuate	-12.7486
▁eventualmente	-12.7486
▁exceed	-12.7486
▁expedition	-12.7486
▁eyebrows	-12.7486
▁ferrocarril	-12.7486
▁financieros	-12.7486
▁fingerprints	-12.7486
▁flavor	-12.7486
▁giraffe	-12.7486
▁gramática	-12.7486
▁gratuita	-12.7486
▁greedy	-12.7486
▁gunshot	-12.7486
▁hairdresser	-12.7486
▁hakone	-12.7486
▁happily	-12.7486
▁helsinki	-12.7486
▁hesitation	-12.7486
▁hiciese	-12.7486
▁himalaya	-12.7486
▁honshu	-12.7486
▁hyogo	-12.7486
▁immature	-12.7486
▁immigrants	-12.7486
▁impolite	-12.7486
▁inaceptable	-12.7486
▁ingleses	-12.7486
▁inmaduro	-12.7486
▁inmigrantes	-12.7486
▁insensible	-12.7486
▁intrigued	-12.7486
▁invasores	-12.7486
▁janeiro	-12.7486
▁jirafa	-12.7486
▁jodiendo	-12.7486
▁jubiló	-12.7486
▁karaoke	-12.7486
▁kennedy	-12.7486
▁knives	-12.7486
▁lemonade	-12.7486
▁liquid	-12.7486
▁llanto	-12.7486
▁medication	-12.7486
▁mendigo	-12.7486
▁mercurio	-12.7486
▁mercury	-12.7486
▁mermelada	-12.7486
▁microscope	-12.7486
▁montgomery	-12.7486
▁muerda	-12.7486
▁murciélago	-12.7486
▁mysteries	-12.7486
▁neblina	-12.7486
▁neutral	-12.7486
▁nitrógeno	-12.7486
▁ofendido	-12.7486
▁olfato	-12.7486
▁orientación	-12.7486
▁otorg	-12.7486
▁overreact	-12.7486
▁pascua	-12.7486
▁patinaje	-12.7486
▁peasant	-12.7486
▁permanezca	-12.7486
▁perspectiva	-12.7486
▁picadura	-12.7486
▁pioneer	-12.7486
▁plagi	-12.7486
▁plague	-12.7486
▁plumber	-12.7486
▁poesía	-12.7486
▁polonia	-12.7486
▁potential	-12.7486
▁privacidad	-12.7486
▁profile	-12.7486
▁protección	-12.7486
▁pupil	-12.7486
▁quisquilloso	-12.7486
▁racial	-12.7486
▁rascacielo	-12.7486
▁recesión	-12.7486
▁reflejo	-12.7486
▁reggae	-12.7486
▁rehús	-12.7486
▁religious	-12.7486
▁rubber	-12.7486
▁salvavidas	-12.7486
▁sample	-12.7486
▁señas	-12.7486
▁shibuya	-12.7486
[...]
